</s> 125000
in 124999
for 124998
that 124997
is 124996
on 124995
## 124994
The 124993
with 124992
said 124991
was 124990
the 124989
at 124988
not 124987
as 124986
it 124985
be 124984
from 124983
by 124982
are 124981
I 124980
have 124979
he 124978
will 124977
has 124976
#### 124975
his 124974
an 124973
this 124972
or 124971
their 124970
who 124969
they 124968
but 124967
$ 124966
had 124965
year 124964
were 124963
we 124962
more 124961
### 124960
up 124959
been 124958
you 124957
its 124956
one 124955
about 124954
would 124953
which 124952
out 124951
can 124950
It 124949
all 124948
also 124947
two 124946
after 124945
first 124944
He 124943
do 124942
time 124941
than 124940
when 124939
We 124938
over 124937
last 124936
new 124935
other 124934
her 124933
people 124932
into 124931
In 124930
our 124929
there 124928
A 124927
she 124926
could 124925
just 124924
years 124923
some 124922
U.S. 124921
three 124920
million 124919
them 124918
what 124917
But 124916
so 124915
no 124914
like 124913
if 124912
only 124911
percent 124910
get 124909
did 124908
him 124907
game 124906
back 124905
because 124904
now 124903
#.# 124902
before 124901
company 124900
any 124899
team 124898
against 124897
off 124896
This 124895
most 124894
made 124893
through 124892
make 124891
second 124890
state 124889
well 124888
day 124887
season 124886
says 124885
week 124884
where 124883
while 124882
down 124881
being 124880
government 124879
your 124878
#-# 124877
home 124876
going 124875
my 124874
good 124873
They 124872
're 124871
should 124870
many 124869
way 124868
those 124867
four 124866
during 124865
such 124864
may 124863
very 124862
how 124861
since 124860
work 124859
take 124858
including 124857
high 124856
then 124855
% 124854
next 124853
#,### 124852
By 124851
much 124850
still 124849
go 124848
think 124847
old 124846
even 124845
#.## 124844
world 124843
see 124842
say 124841
business 124840
five 124839
told 124838
under 124837
us 124836
1 124835
these 124834
If 124833
right 124832
And 124831
me 124830
between 124829
play 124828
help 124827
##,### 124826
market 124825
That 124824
know 124823
end 124822
AP 124821
long 124820
information 124819
points 124818
does 124817
both 124816
There 124815
part 124814
around 124813
police 124812
want 124811
've 124810
based 124809
For 124808
got 124807
third 124806
school 124805
left 124804
another 124803
country 124802
need 124801
2 124800
best 124799
win 124798
quarter 124797
use 124796
today 124795
##.# 124794
same 124793
public 124792
run 124791
Friday 124790
set 124789
month 124788
top 124787
billion 124786
Tuesday 124785
come 124784
Monday 124783
She 124782
city 124781
place 124780
night 124779
six 124778
each 124777
Thursday 124776
###,### 124775
Wednesday 124774
here 124773
You 124772
group 124771
really 124770
found 124769
As 124768
used 124767
3 124766
lot 124765
'm 124764
money 124763
put 124762
games 124761
support 124760
program 124759
half 124758
report 124757
family 124756
months 124755
number 124754
officials 124753
am 124752
former 124751
own 124750
man 124749
Saturday 124748
too 124747
better 124746
days 124745
came 124744
lead 124743
life 124742
American 124741
##-## 124740
show 124739
past 124738
took 124737
added 124736
expected 124735
called 124734
great 124733
State 124732
services 124731
children 124730
hit 124729
area 124728
system 124727
every 124726
pm 124725
big 124724
service 124723
few 124722
per 124721
members 124720
Sunday 124719
early 124718
point 124717
start 124716
companies 124715
little 124714
& 124713
case 124712
ago 124711
local 124710
according 124709
never 124708
5 124707
without 124706
sales 124705
until 124704
went 124703
players 124702
##th 124701
New_York 124700
won 124699
financial 124698
news 124697
4 124696
When 124695
share 124694
several 124693
free 124692
away 124691
##.## 124690
already 124689
On 124688
industry 124687
'll 124686
call 124685
With 124684
students 124683
line 124682
available 124681
County 124680
making 124679
held 124678
final 124677
#:## 124676
power 124675
plan 124674
might 124673
least 124672
look 124671
forward 124670
give 124669
At 124668
again 124667
later 124666
full 124665
must 124664
things 124663
major 124662
community 124661
announced 124660
open 124659
record 124658
reported 124657
court 124656
working 124655
able 124654
something 124653
president 124652
meeting 124651
keep 124650
March 124649
future 124648
far 124647
deal 124646
City 124645
May 124644
development 124643
University 124642
find 124641
times 124640
After 124639
office 124638
led 124637
among 124636
June 124635
increase 124634
China 124633
John 124632
whether 124631
cost 124630
security 124629
job 124628
less 124627
head 124626
seven 124625
growth 124624
lost 124623
pay 124622
looking 124621
provide 124620
6 124619
To 124618
plans 124617
products 124616
car 124615
recent 124614
hard 124613
always 124612
include 124611
women 124610
across 124609
tax 124608
water 124607
April 124606
continue 124605
important 124604
different 124603
close 124602
7 124601
One 124600
late 124599
decision 124598
current 124597
law 124596
within 124595
along 124594
played 124593
move 124592
United_States 124591
enough 124590
become 124589
side 124588
national 124587
Inc. 124586
results 124585
level 124584
loss 124583
economic 124582
coach 124581
near 124580
getting 124579
price 124578
Department 124577
event 124576
fourth 124575
change 124574
All 124573
small 124572
board 124571
National 124570
So 124569
goal 124568
taken 124567
field 124566
prices 124565
weeks 124564
men 124563
asked 124562
eight 124561
data 124560
shot 124559
New 124558
started 124557
July 124556
director 124555
President 124554
party 124553
federal 124552
done 124551
political 124550
minutes 124549
taking 124548
Company 124547
technology 124546
project 124545
center 124544
leading 124543
issue 124542
though 124541
having 124540
period 124539
likely 124538
scored 124537
8 124536
strong 124535
series 124534
military 124533
seen 124532
trying 124531
What 124530
coming 124529
process 124528
building 124527
behind 124526
performance 124525
management 124524
Iraq 124523
saying 124522
earlier 124521
believe 124520
oil 124519
given 124518
Police 124517
customers 124516
due 124515
following 124514
term 124513
others 124512
statement 124511
international 124510
economy 124509
health 124508
thing 124507
Obama 124506
return 124505
killed 124504
Washington 124503
further 124502
However 124501
doing 124500
face 124499
low 124498
higher 124497
site 124496
once 124495
yet 124494
hours 124493
America 124492
control 124491
received 124490
rate 124489
career 124488
Bush 124487
teams 124486
known 124485
offer 124484
race 124483
ever 124482
experience 124481
playing 124480
name 124479
possible 124478
countries 124477
Mr. 124476
average 124475
together 124474
using 124473
9 124472
cut 124471
While 124470
total 124469
round 124468
young 124467
nearly 124466
shares 124465
member 124464
campaign 124463
media 124462
needs 124461
why 124460
house 124459
issues 124458
costs 124457
fire 124456
##-# 124455
victory 124454
player 124453
began 124452
sure 124451
story 124450
per_cent 124449
North 124448
His 124447
staff 124446
order 124445
war 124444
large 124443
interest 124442
stock 124441
food 124440
research 124439
key 124438
India 124437
South 124436
morning 124435
conference 124434
senior 124433
global 124432
Center 124431
death 124430
person 124429
thought 124428
gave 124427
feel 124426
energy 124425
history 124424
recently 124423
largest 124422
No. 124421
general 124420
official 124419
released 124418
wanted 124417
meet 124416
short 124415
outside 124414
running 124413
live 124412
ball 124411
online 124410
real 124409
position 124408
fact 124407
fell 124406
nine 124405
December 124404
front 124403
action 124402
defense 124401
problem 124400
problems 124399
Mr 124398
nation 124397
needed 124396
special 124395
January 124394
almost 124393
chance 124392
'd 124391
result 124390
West 124389
September 124388
reports 124387
leader 124386
investment 124385
yesterday 124384
Some 124383
leaders 124382
ahead 124381
production 124380
comes 124379
No 124378
runs 124377
match 124376
role 124375
kind 124374
try 124373
ended 124372
risk 124371
areas 124370
election 124369
workers 124368
visit 124367
bring 124366
road 124365
music 124364
study 124363
makes 124362
often 124361
release 124360
woman 124359
vote 124358
care 124357
town 124356
clear 124355
comment 124354
budget 124353
potential 124352
single 124351
markets 124350
policy 124349
capital 124348
saw 124347
access 124346
weekend 124345
operations 124344
whose 124343
net 124342
House 124341
hand 124340
increased 124339
charges 124338
winning 124337
trade 124336
These 124335
income 124334
value 124333
involved 124332
Bank 124331
November 124330
bill 124329
compared 124328
anything 124327
manager 124326
Texas 124325
property 124324
stop 124323
annual 124322
private 124321
contract 124320
died 124319
Now 124318
hope 124317
product 124316
fans 124315
lower 124314
demand 124313
News 124312
David 124311
club 124310
comments 124309
film 124308
yards 124307
quality 124306
currently 124305
events 124304
addition 124303
couple 124302
schools 124301
attack 124300
region 124299
latest 124298
opportunity 124297
worked 124296
course 124295
bad 124294
fall 124293
Group 124292
October 124291
jobs 124290
list 124289
let 124288
however 124287
chief 124286
summer 124285
programs 124284
According 124283
revenue 124282
Our 124281
rose 124280
previous 124279
TV 124278
football 124277
biggest 124276
employees 124275
changes 124274
residents 124273
means 124272
agreement 124271
includes 124270
post 124269
Canada 124268
probably 124267
related 124266
training 124265
allowed 124264
class 124263
bit 124262
video 124261
Michael 124260
An 124259
sent 124258
education 124257
states 124256
straight 124255
love 124254
beat 124253
hold 124252
turn 124251
finished 124250
network 124249
Smith 124248
buy 124247
foreign 124246
especially 124245
groups 124244
wants 124243
title 124242
included 124241
turned 124240
bank 124239
Florida 124238
efforts 124237
personal 124236
businesses 124235
August 124234
California 124233
situation 124232
district 124231
allow 124230
helped 124229
body 124228
nothing 124227
soon 124226
safety 124225
officer 124224
cents 124223
Europe 124222
St. 124221
additional 124220
spokesman 124219
February 124218
wife 124217
showed 124216
leave 124215
investors 124214
parents 124213
medical 124212
spending 124211
non 124210
London 124209
Council 124208
matter 124207
spent 124206
child 124205
World 124204
effort 124203
opening 124202
either 124201
range 124200
question 124199
European 124198
goals 124197
administration 124196
friends 124195
himself 124194
shows 124193
difficult 124192
kids 124191
paid 124190
create 124189
cash 124188
age 124187
league 124186
form 124185
impact 124184
drive 124183
someone 124182
became 124181
stay 124180
fight 124179
significant 124178
firm 124177
Senate 124176
hospital 124175
charged 124174
operating 124173
main 124172
book 124171
success 124170
son 124169
trading 124168
###-#### 124167
focus 124166
room 124165
continued 124164
Congress 124163
everything 124162
Park 124161
agency 124160
brought 124159
talk 124158
break 124157
air 124156
software 124155
decided 124154
Do 124153
ready 124152
arrested 124151
track 124150
provides 124149
mother 124148
base 124147
trial 124146
phone 124145
My 124144
build 124143
conditions 124142
rest 124141
Johnson 124140
terms 124139
expect 124138
England 124137
Israel 124136
despite 124135
closed 124134
starting 124133
provided 124132
pressure 124131
lives 124130
step 124129
remain 124128
similar 124127
charge 124126
date 124125
whole 124124
land 124123
growing 124122
James 124121
Internet 124120
projects 124119
British 124118
cases 124117
ground 124116
legal 124115
International 124114
agreed 124113
tell 124112
test 124111
everyone 124110
pretty 124109
authorities 124108
Two 124107
above 124106
moved 124105
profit 124104
throughout 124103
inside 124102
ability 124101
overall 124100
pass 124099
officers 124098
rather 124097
Australia 124096
actually 124095
county 124094
amount 124093
scheduled 124092
themselves 124091
organization 124090
giving 124089
credit 124088
father 124087
drug 124086
investigation 124085
families 124084
Republican 124083
funds 124082
patients 124081
takes 124080
systems 124079
Japan 124078
complete 124077
sold 124076
practice 124075
calls 124074
• 124073
UK 124072
force 124071
student 124070
idea 124069
reached 124068
reason 124067
levels 124066
space 124065
competition 124064
forces 124063
sector 124062
Last 124061
tried 124060
common 124059
homes 124058
stage 124057
department 124056
named 124055
earnings 124054
offers 124053
star 124052
certain 124051
double 124050
longer 124049
followed 124048
cause 124047
Association 124046
signed 124045
committee 124044
hour 124043
college 124042
Pakistan 124041
users 124040
Iran 124039
sign 124038
living 124037
failed 124036
reach 124035
quickly 124034
receive 124033
debt 124032
sale 124031
Board 124030
Americans 124029
Road 124028
Brown 124027
insurance 124026
##:## 124025
anyone 124024
tournament 124023
More 124022
gas 124021
talks 124020
serious 124019
required 124018
sell 124017
construction 124016
evidence 124015
remains 124014
black 124013
below 124012
improve 124011
crisis 124010
address 124009
questions 124008
easy 124007
begin 124006
view 124005
School 124004
heard 124003
executive 124002
raised 124001
Paul 124000
store 123999
gets 123998
filed 123997
huge 123996
moving 123995
seems 123994
met 123993
####s 123992
thousands 123991
CEO 123990
solutions 123989
score 123988
content 123987
treatment 123986
offered 123985
built 123984
hits 123983
present 123982
Chicago 123981
attacks 123980
although 123979
social 123978
afternoon 123977
vehicle 123976
read 123975
example 123974
rise 123973
.... 123972
minute 123971
banks 123970
council 123969
troops 123968
rates 123967
tough 123966
Chinese 123965
Even 123964
works 123963
fifth 123962
knew 123961
felt 123960
Street 123959
website 123958
fund 123957
issued 123956
immediately 123955
opened 123954
goes 123953
proposed 123952
happy 123951
guys 123950
response 123949
numbers 123948
benefits 123947
happened 123946
###.# 123945
light 123944
positive 123943
chairman 123942
claims 123941
People 123940
details 123939
Williams 123938
East 123937
accused 123936
equipment 123935
dropped 123934
dollars 123933
various 123932
worth 123931
judge 123930
considered 123929
commercial 123928
activities 123927
funding 123926
dollar 123925
plant 123924
mobile 123923
television 123922
rules 123921
rights 123920
review 123919
quite 123918
regular 123917
Dr. 123916
served 123915
kept 123914
marketing 123913
created 123912
heart 123911
wrote 123910
prison 123909
instead 123908
concerns 123907
offering 123906
returned 123905
benefit 123904
designed 123903
approved 123902
foot 123901
search 123900
miles 123899
planned 123898
Health 123897
Government 123896
driving 123895
Indian 123894
entire 123893
First 123892
providing 123891
host 123890
ask 123889
design 123888
hearing 123887
save 123886
looked 123885
Central 123884
travel 123883
_ 123882
successful 123881
beginning 123880
movie 123879
adding 123878
forced 123877
toward 123876
ensure 123875
passed 123874
unit 123873
happen 123872
mean 123871
Associated_Press 123870
Many 123869
shooting 123868
gone 123867
winner 123866
hopes 123865
understand 123864
planning 123863
trip 123862
raise 123861
owner 123860
popular 123859
completed 123858
ways 123857
attention 123856
feet 123855
assets 123854
traffic 123853
Mike 123852
Since 123851
environment 123850
Both 123849
interview 123848
consumers 123847
Democrats 123846
Jones 123845
Not 123844
hands 123843
contact 123842
cars 123841
Although 123840
dead 123839
features 123838
challenge 123837
Canadian 123836
particularly 123835
basis 123834
violence 123833
stand 123832
consumer 123831
sense 123830
attorney 123829
driver 123828
highest 123827
£ 123826
posted 123825
finish 123824
limited 123823
source 123822
Hall 123821
serve 123820
Sept. 123819
spot 123818
Then 123817
advantage 123816
scoring 123815
words 123814
applications 123813
Russia 123812
reduce 123811
How 123810
white 123809
appeared 123808
itself 123807
fuel 123806
During 123805
Afghanistan 123804
simply 123803
fiscal 123802
Jackson 123801
plays 123800
account 123799
follow 123798
statements 123797
organizations 123796
pick 123795
continues 123794
session 123793
nuclear 123792
French 123791
seconds 123790
daughter 123789
co 123788
sports 123787
Most 123786
caused 123785
injury 123784
United 123783
College 123782
effect 123781
selling 123780
middle 123779
cuts 123778
drop 123777
facility 123776
true 123775
target 123774
consider 123773
watch 123772
noted 123771
Other 123770
resources 123769
opportunities 123768
strategy 123767
learn 123766
re 123765
Mexico 123764
message 123763
injured 123762
parties 123761
seeking 123760
missed 123759
wrong 123758
letter 123757
From 123756
looks 123755
individual 123754
approach 123753
damage 123752
else 123751
speed 123750
France 123749
mind 123748
Los_Angeles 123747
bid 123746
subject 123745
ran 123744
send 123743
Mark 123742
existing 123741
fun 123740
innings 123739
press 123738
voters 123737
championship 123736
leaving 123735
earned 123734
effective 123733
poor 123732
friend 123731
customer 123730
solution 123729
corporate 123728
independent 123727
leadership 123726
human 123725
Democratic 123724
shots 123723
believes 123722
computer 123721
s 123720
items 123719
confidence 123718
add 123717
health_care 123716
award 123715
parts 123714
cover 123713
missing 123712
fast 123711
Iraqi 123710
incident 123709
husband 123708
responsible 123707
looking_statements 123706
losses 123705
estimated 123704
approximately 123703
guy 123702
purchase 123701
Australian 123700
helping 123699
finally 123698
spend 123697
scene 123696
opposition 123695
develop 123694
Ohio 123693
certainly 123692
extra 123691
UN 123690
talking 123689
spring 123688
emergency 123687
station 123686
check 123685
Chris 123684
soldiers 123683
vehicles 123682
launch 123681
Business 123680
critical 123679
professional 123678
described 123677
choice 123676
moment 123675
size 123674
changed 123673
holding 123672
door 123671
declined 123670
R 123669
launched 123668
condition 123667
lose 123666
joined 123665
gives 123664
developed 123663
Also 123662
protect 123661
girls 123660
District 123659
operation 123658
necessary 123657
taxes 123656
sites 123655
Day 123654
beyond 123653
African 123652
daily 123651
yard 123650
calling 123649
Those 123648
options 123647
stocks 123646
newspaper 123645
peace 123644
proposal 123643
Jan. 123642
previously 123641
Microsoft 123640
owned 123639
regional 123638
Thomas 123637
hear 123636
housing 123635
owners 123634
exchange 123633
majority 123632
starts 123631
victims 123630
Times 123629
model 123628
struck 123627
tour 123626
basketball 123625
###-###-#### 123624
published 123623
twice 123622
candidates 123621
Commission 123620
population 123619
evening 123618
lack 123617
north 123616
fighting 123615
reporters 123614
concerned 123613
south 123612
fine 123611
weather 123610
figures 123609
floor 123608
relationship 123607
activity 123606
remaining 123605
believed 123604
Scott 123603
confirmed 123602
anti 123601
placed 123600
caught 123599
crime 123598
crowd 123597
appear 123596
version 123595
Western 123594
Boston 123593
girl 123592
join 123591
discuss 123590
church 123589
original 123588
Michigan 123587
aid 123586
expectations 123585
White_House 123584
Bill 123583
clients 123582
located 123581
Germany 123580
Israeli 123579
gold 123578
killing 123577
specific 123576
Robert 123575
act 123574
High_School 123573
partner 123572
losing 123571
claim 123570
records 123569
Office 123568
offense 123567
Dec. 123566
Just 123565
alone 123564
Corp. 123563
facilities 123562
Another 123561
division 123560
Oct. 123559
Nov. 123558
retail 123557
worst 123556
legislation 123555
page 123554
Lee 123553
measures 123552
brand 123551
expects 123550
art 123549
Services 123548
standards 123547
application 123546
central 123545
sixth 123544
safe 123543
style 123542
elections 123541
* 123540
primary 123539
greater 123538
progress 123537
managed 123536
supply 123535
gain 123534
prior 123533
Committee 123532
wins 123531
recovery 123530
e_mail 123529
upon 123528
plus 123527
type 123526
paper 123525
attempt 123524
High 123523
focused 123522
claimed 123521
survey 123520
injuries 123519
street 123518
stores 123517
block 123516
analysts 123515
Big 123514
allows 123513
hundreds 123512
avoid 123511
Conference 123510
governor 123509
figure 123508
band 123507
option 123506
lines 123505
sources 123504
domestic 123503
NFL 123502
knows 123501
seem 123500
Open 123499
Republicans 123498
Britain 123497
feature 123496
walk 123495
broke 123494
factors 123493
battle 123492
developing 123491
threat 123490
worldwide 123489
Feb. 123488
written 123487
Christmas 123486
committed 123485
green 123484
agencies 123483
improved 123482
traditional 123481
###.## 123480
fair 123479
border 123478
About 123477
Reuters 123476
concern 123475
mark 123474
allowing 123473
capacity 123472
putting 123471
appears 123470
stories 123469
grow 123468
unique 123467
favorite 123466
nice 123465
Today 123464
vice_president 123463
measure 123462
debate 123461
direct 123460
stopped 123459
index 123458
drugs 123457
tied 123456
rising 123455
risks 123454
League 123453
Despite 123452
mid 123451
arrived 123450
communities 123449
Meanwhile 123448
increasing 123447
presented 123446
Her 123445
boy 123444
Court 123443
standard 123442
prevent 123441
mission 123440
deep 123439
Chief 123438
word 123437
identified 123436
pulled 123435
inning 123434
difference 123433
pair 123432
suffered 123431
perfect 123430
advanced 123429
prepared 123428
fully 123427
blood 123426
signs 123425
showing 123424
English 123423
####-## 123422
interested 123421
material 123420
article 123419
experts 123418
bottom 123417
answer 123416
D 123415
George 123414
usually 123413
wait 123412
spoke 123411
Davis 123410
laws 123409
request 123408
units 123407
loan 123406
directly 123405
union 123404
particular 123403
baseball 123402
loans 123401
pre 123400
born 123399
affected 123398
waiting 123397
simple 123396
Martin 123395
picked 123394
Arizona 123393
faces 123392
Russian 123391
names 123390
EU 123389
generation 123388
responsibility 123387
combined 123386
audience 123385
hurt 123384
seemed 123383
red 123382
revenues 123381
candidate 123380
Under 123379
ranked 123378
cities 123377
places 123376
ruling 123375
Green 123374
speak 123373
strike 123372
documents 123371
Year 123370
sometimes 123369
King 123368
seasons 123367
via 123366
carry 123365
boys 123364
facing 123363
learned 123362
hotel 123361
produced 123360
Google 123359
seeing 123358
seat 123357
produce 123356
millions 123355
box 123354
decisions 123353
coverage 123352
voice 123351
rule 123350
respect 123349
World_Cup 123348
cancer 123347
shown 123346
fired 123345
decades 123344
reasons 123343
tonight 123342
Aug. 123341
commitment 123340
alleged 123339
competitive 123338
rebounds 123337
Miller 123336
individuals 123335
thinking 123334
established 123333
books 123332
approval 123331
deliver 123330
remained 123329
guard 123328
Service 123327
God 123326
infrastructure 123325
appeal 123324
digital 123323
Web 123322
ordered 123321
citizens 123320
Research 123319
speech 123318
push 123317
highly 123316
Army 123315
decline 123314
holiday 123313
self 123312
Three 123311
accident 123310
radio 123309
require 123308
murder 123307
wide 123306
policies 123305
park 123304
Their 123303
champion 123302
platform 123301
pleased 123300
heavy 123299
eventually 123298
crash 123297
minister 123296
hot 123295
serving 123294
asking 123293
Detroit 123292
keeping 123291
provider 123290
partners 123289
remember 123288
seek 123287
manufacturing 123286
teachers 123285
towards 123284
buying 123283
warned 123282
Steve 123281
initial 123280
pounds 123279
brother 123278
panel 123277
becoming 123276
entered 123275
sides 123274
victim 123273
setting 123272
Co. 123271
environmental 123270
bus 123269
Is 123268
Asia 123267
note 123266
IT 123265
carried 123264
consecutive 123263
older 123262
criminal 123261
Richard 123260
bought 123259
Georgia 123258
Institute 123257
announcement 123256
Union 123255
Rs 123254
Division 123253
decade 123252
clean 123251
stated 123250
penalty 123249
boost 123248
attend 123247
separate 123246
enjoy 123245
Web_site 123244
table 123243
analysis 123242
Japanese 123241
German 123240
skills 123239
jail 123238
Valley 123237
protection 123236
analyst 123235
mostly 123234
paying 123233
draw 123232
Director 123231
Taylor 123230
perhaps 123229
reading 123228
cross 123227
commission 123226
drivers 123225
offices 123224
presence 123223
meetings 123222
votes 123221
strength 123220
Of 123219
delivery 123218
location 123217
positions 123216
regarding 123215
hoping 123214
Ryan 123213
offensive 123212
spread 123211
White 123210
whom 123209
deficit 123208
powerful 123207
Club 123206
continuing 123205
natural 123204
revealed 123203
feeling 123202
Jim 123201
grew 123200
watching 123199
suggested 123198
slow 123197
challenges 123196
Writer 123195
larger 123194
quick 123193
definitely 123192
flight 123191
university 123190
junior 123189
inflation 123188
ones 123187
Apple 123186
honor 123185
active 123184
voted 123183
Community 123182
solid 123181
Clinton 123180
Act 123179
determine 123178
reduced 123177
fees 123176
multiple 123175
decide 123174
advertising 123173
language 123172
expressed 123171
steps 123170
easily 123169
bringing 123168
physical 123167
throw 123166
forecast 123165
schedule 123164
denied 123163
finding 123162
ban 123161
Game 123160
agree 123159
section 123158
admitted 123157
actions 123156
normal 123155
devices 123154
Because 123153
squad 123152
creating 123151
walked 123150
chief_executive 123149
streets 123148
clearly 123147
complex 123146
lawyer 123145
elected 123144
increases 123143
Energy 123142
estimates 123141
excited 123140
helps 123139
relief 123138
determined 123137
maybe 123136
suspect 123135
Hill 123134
sound 123133
piece 123132
campus 123131
southern 123130
degree 123129
smaller 123128
status 123127
headed 123126
#-## 123125
healthy 123124
massive 123123
testing 123122
distribution 123121
Why 123120
completely 123119
onto 123118
hitting 123117
closing 123116
lawmakers 123115
fresh 123114
winter 123113
Tom 123112
contest 123111
outstanding 123110
exactly 123109
percentage 123108
Joe 123107
contributed 123106
movement 123105
storm 123104
seventh 123103
fear 123102
weight 123101
Minnesota 123100
McCain 123099
C 123098
secure 123097
conducted 123096
acquisition 123095
Over 123094
maintain 123093
rally 123092
knowledge 123091
recorded 123090
assistant 123089
doctors 123088
proud 123087
advice 123086
Secretary 123085
finance 123084
sex 123083
Peter 123082
WASHINGTON 123081
refused 123080
Miami 123079
agent 123078
draft 123077
pitch 123076
Justice 123075
supporters 123074
General 123073
user 123072
presidential 123071
tie 123070
Africa 123069
New_Zealand 123068
sort 123067
Houston 123066
disease 123065
tomorrow 123064
core 123063
willing 123062
patient 123061
Hospital 123060
considering 123059
firms 123058
Still 123057
technical 123056
trouble 123055
Its 123054
picture 123053
extremely 123052
confident 123051
count 123050
visitors 123049
extended 123048
Once 123047
reality 123046
expand 123045
Christian 123044
expansion 123043
lived 123042
Lake 123041
Palestinian 123040
downtown 123039
doubt 123038
nature 123037
listed 123036
leads 123035
opinion 123034
River 123033
row 123032
fellow 123031
corner 123030
author 123029
Development 123028
screen 123027
shareholders 123026
faced 123025
Illinois 123024
plants 123023
arrest 123022
society 123021
character 123020
labor 123019
gains 123018
science 123017
teacher 123016
web 123015
restaurant 123014
learning 123013
recession 123012
raising 123011
failure 123010
airport 123009
intelligence 123008
selected 123007
zone 123006
buildings 123005
industrial 123004
contracts 123003
advance 123002
fit 123001
assists 123000
tickets 122999
youth 122998
variety 122997
matches 122996
defensive 122995
package 122994
requirements 122993
connection 122992
writing 122991
ongoing 122990
Iowa 122989
explained 122988
accept 122987
lawsuit 122986
Wilson 122985
profile 122984
ending 122983
expenses 122982
employee 122981
resident 122980
myself 122979
stuff 122978
Supreme_Court 122977
Toronto 122976
standing 122975
Corporation 122974
covered 122973
Young 122972
politics 122971
aware 122970
Minister 122969
device 122968
display 122967
culture 122966
train 122965
driven 122964
closer 122963
real_estate 122962
illegal 122961
meant 122960
technologies 122959
card 122958
dog 122957
in. 122956
enter 122955
communications 122954
weapons 122953
gained 122952
supported 122951
eye 122950
NEW_YORK 122949
associated 122948
chances 122947
Instead 122946
centers 122945
dangerous 122944
views 122943
worse 122942
studies 122941
discussion 122940
Colorado 122939
Atlanta 122938
San_Francisco 122937
attended 122936
pace 122935
Virginia 122934
album 122933
entertainment 122932
camp 122931
Before 122930
trust 122929
strategic 122928
falling 122927
favor 122926
retired 122925
removed 122924
army 122923
balance 122922
plane 122921
quarterback 122920
Baghdad 122919
banking 122918
baby 122917
truck 122916
Ford 122915
sought 122914
write 122913
partnership 122912
nearby 122911
image 122910
stars 122909
volume 122908
effects 122907
Cup 122906
tests 122905
South_Africa 122904
Chairman 122903
interests 122902
occurred 122901
Philadelphia 122900
bond 122899
introduced 122898
sport 122897
spokeswoman 122896
behavior 122895
defeat 122894
treated 122893
direction 122892
Only 122891
bigger 122890
crew 122889
allegedly 122888
uses 122887
Avenue 122886
mortgage 122885
miss 122884
Among 122883
catch 122882
appearance 122881
welcome 122880
experienced 122879
ideas 122878
negotiations 122877
Foundation 122876
Asian 122875
authority 122874
slightly 122873
urged 122872
hole 122871
reform 122870
achieve 122869
Education 122868
Brian 122867
assistance 122866
delivered 122865
compete 122864
link 122863
choose 122862
possibility 122861
ruled 122860
interesting 122859
seats 122858
threw 122857
drove 122856
Anderson 122855
B 122854
immediate 122853
investments 122852
payments 122851
northern 122850
relations 122849
license 122848
discovered 122847
prove 122846
registered 122845
perform 122844
governments 122843
debut 122842
researchers 122841
accounts 122840
Well 122839
limit 122838
eyes 122837
deaths 122836
Here 122835
neighborhood 122834
handed 122833
veteran 122832
alternative 122831
basic 122830
manage 122829
tools 122828
negative 122827
Each 122826
secretary 122825
kill 122824
receiving 122823
Jr. 122822
collection 122821
coaches 122820
returns 122819
Black 122818
surgery 122817
gun 122816
replace 122815
fan 122814
institutions 122813
personnel 122812
golf 122811
happens 122810
surprise 122809
changing 122808
kick 122807
ceremony 122806
west 122805
resolution 122804
broken 122803
plenty 122802
nor 122801
easier 122800
passing 122799
pain 122798
Kevin 122797
bar 122796
Bob 122795
Federal 122794
everybody 122793
talent 122792
represent 122791
Former 122790
unless 122789
pull 122788
cast 122787
deals 122786
grade 122785
song 122784
filled 122783
wish 122782
begins 122781
affect 122780
nations 122779
fee 122778
Post 122777
largely 122776
New_Jersey 122775
apparently 122774
email 122773
NBA 122772
Management 122771
portfolio 122770
recognized 122769
speaking 122768
shut 122767
sit 122766
profits 122765
reporting 122764
holds 122763
represents 122762
dozen 122761
practices 122760
declared 122759
rich 122758
thanks 122757
##### 122756
supplies 122755
convicted 122754
native 122753
Dallas 122752
improvement 122751
amid 122750
classes 122749
participate 122748
accepted 122747
jump 122746
village 122745
aircraft 122744
poll 122743
abuse 122742
carrying 122741
east 122740
pro 122739
client 122738
equity 122737
sitting 122736
generally 122735
notes 122734
unable 122733
ice 122732
houses 122731
stake 122730
Carolina 122729
rain 122728
savings 122727
warning 122726
brings 122725
USA 122724
discussed 122723
Fed 122722
adults 122721
GM 122720
file 122719
Spain 122718
responded 122717
parking 122716
Let 122715
returning 122714
Sun 122713
orders 122712
telling 122711
encourage 122710
Like 122709
identify 122708
William 122707
pushed 122706
joint 122705
conduct 122704
suspended 122703
wind 122702
Tigers 122701
edge 122700
roads 122699
female 122698
sentence 122697
Wall_Street 122696
Oklahoma 122695
backed 122694
promote 122693
eighth 122692
influence 122691
organized 122690
Seattle 122689
cold 122688
bills 122687
payment 122686
properties 122685
scale 122684
Your 122683
rival 122682
religious 122681
retirement 122680
possibly 122679
turning 122678
civil 122677
moves 122676
currency 122675
Team 122674
aimed 122673
Italy 122672
breaking 122671
alcohol 122670
awards 122669
talked 122668
grant 122667
wall 122666
allegations 122665
requires 122664
Indiana 122663
mayor 122662
races 122661
struggling 122660
whatever 122659
readers 122658
appointed 122657
Matt 122656
voting 122655
Will 122654
Home 122653
significantly 122652
heat 122651
Information 122650
structure 122649
transfer 122648
supporting 122647
trend 122646
increasingly 122645
networks 122644
otherwise 122643
conflict 122642
cutting 122641
modern 122640
wearing 122639
executives 122638
entry 122637
Beijing 122636
playoff 122635
wireless 122634
T 122633
Fire 122632
Every 122631
M 122630
Centre 122629
meaning 122628
leg 122627
intended 122626
appropriate 122625
excellent 122624
North_Carolina 122623
involving 122622
stood 122621
heads 122620
rescue 122619
walking 122618
locations 122617
materials 122616
sending 122615
bodies 122614
snow 122613
fish 122612
feels 122611
Mayor 122610
deputy 122609
mile 122608
Olympic 122607
passengers 122606
except 122605
Fox 122604
Senior 122603
storage 122602
shop 122601
Lewis 122600
Middle_East 122599
supposed 122598
numerous 122597
songs 122596
awarded 122595
traded 122594
sister 122593
possession 122592
realize 122591
understanding 122590
ten 122589
justice 122588
rating 122587
expensive 122586
jumped 122585
improving 122584
fraud 122583
animals 122582
Howard 122581
Technology 122580
dedicated 122579
tight 122578
lawyers 122577
sets 122576
linked 122575
providers 122574
investigators 122573
stands 122572
terrorism 122571
arm 122570
freedom 122569
notice 122568
sentenced 122567
coalition 122566
touch 122565
Women 122564
exercise 122563
Global 122562
settlement 122561
disaster 122560
assist 122559
electronic 122558
playoffs 122557
combination 122556
apply 122555
shared 122554
doctor 122553
US 122552
comprehensive 122551
Andrew 122550
earn 122549
fill 122548
rock 122547
Fund 122546
giant 122545
please 122544
suit 122543
Life 122542
owns 122541
electricity 122540
exciting 122539
winners 122538
beating 122537
protest 122536
Though 122535
rejected 122534
ticket 122533
Church 122532
Charles 122531
farmers 122530
ride 122529
maker 122528
heading 122527
Yet 122526
regulations 122525
Kelly 122524
models 122523
ends 122522
Sports 122521
innovative 122520
Earlier 122519
upcoming 122518
writer 122517
performed 122516
films 122515
arms 122514
married 122513
prosecutors 122512
agents 122511
##s 122510
handle 122509
Market 122508
duty 122507
captain 122506
securities 122505
employment 122504
surprised 122503
Securities 122502
worried 122501
ninth 122500
Muslim 122499
Sen. 122498
pointed 122497
magazine 122496
threatened 122495
headquarters 122494
Italian 122493
participants 122492
visiting 122491
Oregon 122490
press_release 122489
fly 122488
Wisconsin 122487
Jordan 122486
primarily 122485
respectively 122484
Spanish 122483
New_Orleans 122482
transportation 122481
younger 122480
Media 122479
jury 122478
respond 122477
rural 122476
Ministry 122475
acting 122474
Party 122473
factor 122472
update 122471
island 122470
Afghan 122469
flat 122468
remove 122467
photo 122466
Mary 122465
selection 122464
scheme 122463
Facebook 122462
impressive 122461
becomes 122460
P 122459
indicated 122458
Yankees 122457
Jeff 122456
Financial 122455
photos 122454
professionals 122453
fewer 122452
shopping 122451
split 122450
San_Diego 122449
Public 122448
initiative 122447
Moore 122446
stretch 122445
monthly 122444
stronger 122443
bench 122442
racing 122441
Tennessee 122440
none 122439
values 122438
farm 122437
producer 122436
reduction 122435
famous 122434
Pennsylvania 122433
Brazil 122432
broadcast 122431
promised 122430
operate 122429
Allen 122428
acquired 122427
goods 122426
Paris 122425
relatively 122424
passes 122423
purpose 122422
movies 122421
directors 122420
Southern 122419
SEC 122418
clubs 122417
conservative 122416
Delhi 122415
Call 122414
comfortable 122413
replaced 122412
Clark 122411
matters 122410
hospitals 122409
Top 122408
Hollywood 122407
Democrat 122406
opponents 122405
targets 122404
suffering 122403
festival 122402
Network 122401
compensation 122400
guilty 122399
efficient 122398
managers 122397
truly 122396
faith 122395
scores 122394
busy 122393
extend 122392
faster 122391
yourself 122390
weak 122389
rare 122388
initially 122387
importance 122386
waste 122385
suspected 122384
margin 122383
watched 122382
meters 122381
Ireland 122380
franchise 122379
fashion 122378
pound 122377
professor 122376
Alabama 122375
multi 122374
grown 122373
Officials 122372
estimate 122371
document 122370
register 122369
cable 122368
obviously 122367
familiar 122366
scientists 122365
Cleveland 122364
artists 122363
invited 122362
#,###,### 122361
vs. 122360
crimes 122359
Gulf 122358
Hamas 122357
prepare 122356
volunteers 122355
cool 122354
financing 122353
images 122352
fixed 122351
hired 122350
enable 122349
camera 122348
Food 122347
memory 122346
historic 122345
dinner 122344
proved 122343
Arab 122342
sees 122341
telephone 122340
vision 122339
reportedly 122338
soccer 122337
.### 122336
Irish 122335
ship 122334
path 122333
actor 122332
circumstances 122331
severe 122330
expert 122329
traveling 122328
engineering 122327
Manchester 122326
Four 122325
dance 122324
Taliban 122323
Jason 122322
Turkey 122321
Several 122320
overseas 122319
Thompson 122318
bridge 122317
lowest 122316
auto 122315
counts 122314
attempts 122313
reflect 122312
color 122311
Tim 122310
wounded 122309
secret 122308
visited 122307
greatest 122306
leaves 122305
types 122304
representatives 122303
worry 122302
internal 122301
Bay 122300
adds 122299
athletes 122298
Harris 122297
mix 122296
industries 122295
ministry 122294
signing 122293
Woods 122292
targeted 122291
tells 122290
Please 122289
serves 122288
interest_rates 122287
AP_Photo 122286
Local 122285
graduate 122284
quoted 122283
argued 122282
association 122281
lots 122280
announce 122279
shortly 122278
featured 122277
marriage 122276
contained 122275
Man 122274
priority 122273
terrorist 122272
Commerce 122271
Oil 122270
Pittsburgh 122269
unlikely 122268
causing 122267
directed 122266
code 122265
die 122264
category 122263
chosen 122262
shift 122261
Rangers 122260
Gaza 122259
maintenance 122258
apartment 122257
theater 122256
effectively 122255
Denver 122254
mine 122253
upset 122252
western 122251
nationwide 122250
GOP 122249
thinks 122248
Pacific 122247
euro 122246
Joseph 122245
Sales 122244
closely 122243
friendly 122242
channel 122241
brain 122240
custody 122239
barrel 122238
afford 122237
Who 122236
Yes 122235
dogs 122234
residential 122233
dream 122232
actual 122231
reaching 122230
transaction 122229
Kentucky 122228
finals 122227
#.### 122226
cooperation 122225
boat 122224
investigating 122223
communication 122222
freshman 122221
outlook 122220
deadline 122219
surface 122218
parent 122217
phase 122216
eat 122215
asset 122214
truth 122213
delay 122212
enjoyed 122211
shape 122210
anticipated 122209
representing 122208
purchased 122207
hoped 122206
Judge 122205
Rep. 122204
portion 122203
opposed 122202
Security 122201
enterprise 122200
animal 122199
controlled 122198
politicians 122197
Power 122196
North_Korea 122195
Dan 122194
cards 122193
suggest 122192
Family 122191
concert 122190
uncertainties 122189
Free 122188
granted 122187
beautiful 122186
recognize 122185
joining 122184
####-#### 122183
flights 122182
absolutely 122181
Hamilton 122180
dealing 122179
cap 122178
turns 122177
Capital 122176
ties 122175
informed 122174
Jack 122173
#,###.## 122172
window 122171
'## 122170
Best 122169
pool 122168
Hong_Kong 122167
coaching 122166
titles 122165
blue 122164
amazing 122163
fears 122162
demands 122161
Missouri 122160
cited 122159
behalf 122158
Edwards 122157
bonds 122156
shoulder 122155
seriously 122154
districts 122153
aggressive 122152
alive 122151
Utah 122150
bomb 122149
suspects 122148
dark 122147
sea 122146
therefore 122145
overtime 122144
submitted 122143
agenda 122142
establish 122141
Kansas 122140
engine 122139
Program 122138
mainly 122137
NCAA 122136
maximum 122135
male 122134
pushing 122133
airline 122132
principal 122131
library 122130
pieces 122129
dispute 122128
corruption 122127
reserve 122126
Children 122125
sponsored 122124
militants 122123
reducing 122122
Massachusetts 122121
originally 122120
Championship 122119
sharing 122118
mixed 122117
complaint 122116
J. 122115
realized 122114
crucial 122113
province 122112
ultimately 122111
brands 122110
capabilities 122109
acknowledged 122108
distance 122107
struggle 122106
Or 122105
stations 122104
discussions 122103
judges 122102
Maybe 122101
extensive 122100
Award 122099
Giants 122098
manufacturers 122097
Jewish 122096
Egypt 122095
United_Nations 122094
achieved 122093
defeated 122092
assault 122091
worker 122090
criticism 122089
usual 122088
Patrick 122087
presentation 122086
improvements 122085
Of_course 122084
Anthony 122083
represented 122082
Such 122081
Shares 122080
Any 122079
findings 122078
counties 122077
stolen 122076
K 122075
expense 122074
Daniel 122073
Dr 122072
editor 122071
herself 122070
Drive 122069
complaints 122068
buyers 122067
A. 122066
mentioned 122065
stayed 122064
efficiency 122063
democracy 122062
knee 122061
connected 122060
Islamic 122059
Q 122058
terror 122057
operates 122056
law_enforcement 122055
prime_minister 122054
Series 122053
neighbors 122052
successfully 122051
permanent 122050
Tony 122049
parliament 122048
adult 122047
ages 122046
Eagles 122045
consistent 122044
proposals 122043
explain 122042
formed 122041
weekly 122040
supports 122039
coast 122038
broad 122037
iPhone 122036
relevant 122035
opener 122034
detailed 122033
Walker 122032
human_rights 122031
Iranian 122030
letters 122029
guess 122028
internet 122027
struggled 122026
entering 122025
widely 122024
recovered 122023
Law 122022
happening 122021
par 122020
protests 122019
II 122018
colleagues 122017
tool 122016
trees 122015
text 122014
capable 122013
Phoenix 122012
monitoring 122011
limits 122010
eligible 122009
# 122008
passenger 122007
expanded 122006
Ms. 122005
reputation 122004
brief 122003
motion 122002
St._Louis 122001
treat 122000
fought 121999
concluded 121998
gap 121997
unemployment 121996
restaurants 121995
ad 121994
surrounding 121993
stepped 121992
drew 121991
collected 121990
Gold 121989
#.#### 121988
retailers 121987
preparing 121986
wear 121985
destroyed 121984
threats 121983
Chelsea 121982
Singapore 121981
invest 121980
Town 121979
concept 121978
recommended 121977
flying 121976
Kerry 121975
minimum 121974
flow 121973
resulted 121972
marked 121971
chain 121970
combat 121969
rookie 121968
Stephen 121967
noon 121966
performances 121965
Gary 121964
founded 121963
artist 121962
reporter 121961
celebrate 121960
featuring 121959
Air 121958
Star 121957
gathered 121956
potentially 121955
PC 121954
publicly 121953
Kennedy 121952
disappointed 121951
Agency 121950
pictures 121949
touchdowns 121948
fallen 121947
President_Barack_Obama 121946
depth 121945
auction 121944
wonderful 121943
criticized 121942
attacked 121941
essential 121940
damaged 121939
qualified 121938
banned 121937
suggests 121936
specifically 121935
sat 121934
Scotland 121933
Project 121932
loved 121931
dozens 121930
representative 121929
Authorities 121928
typically 121927
era 121926
Stewart 121925
singer 121924
thus 121923
creation 121922
teaching 121921
Sydney 121920
NHL 121919
acres 121918
challenging 121917
encouraged 121916
Las_Vegas 121915
Northern 121914
seniors 121913
quarters 121912
momentum 121911
Dave 121910
producing 121909
processing 121908
inches 121907
segment 121906
versus 121905
mining 121904
route 121903
expertise 121902
Five 121901
wing 121900
touchdown 121899
promise 121898
Wright 121897
healthcare 121896
Are 121895
yen 121894
integrated 121893
neither 121892
Robinson 121891
Academy 121890
puts 121889
Press 121888
foundation 121887
overnight 121886
armed 121885
ex 121884
outcome 121883
reaction 121882
producers 121881
follows 121880
fields 121879
stadium 121878
Be 121877
failing 121876
aside 121875
bed 121874
doors 121873
pilot 121872
E 121871
operators 121870
forms 121869
extension 121868
mass 121867
substantial 121866
obtained 121865
adopted 121864
reserves 121863
FBI 121862
carries 121861
NATO 121860
trained 121859
Dubai 121858
contain 121857
tackle 121856
temporary 121855
proven 121854
regulatory 121853
violent 121852
danger 121851
tree 121850
boss 121849
Frank 121848
Maryland 121847
apart 121846
gift 121845
musical 121844
warm 121843
creative 121842
Prime_Minister 121841
transport 121840
developers 121839
OK 121838
likes 121837
Henry 121836
Ben 121835
courts 121834
wake 121833
shoot 121832
lineup 121831
Report 121830
regulation 121829
kid 121828
task 121827
blog 121826
hosted 121825
Medical 121824
eastern 121823
South_Korea 121822
drawn 121821
Ave 121820
regime 121819
pending 121818
ourselves 121817
threatening 121816
mistake 121815
Through 121814
laid 121813
journalists 121812
cultural 121811
blame 121810
copy 121809
machine 121808
mail 121807
® 121806
proper 121805
listen 121804
links 121803
Officer 121802
Columbia 121801
relationships 121800
natural_gas 121799
premium 121798
0 121797
assessment 121796
generated 121795
chose 121794
Campbell 121793
Second 121792
captured 121791
Can 121790
summit 121789
climate 121788
sophomore 121787
Connecticut 121786
keeps 121785
teammates 121784
dismissed 121783
Time 121782
generate 121781
hockey 121780
Vice_President 121779
vital 121778
E. 121777
territory 121776
Eastern 121775
elsewhere 121774
hair 121773
resulting 121772
Mississippi 121771
veterans 121770
recognition 121769
BP 121768
accounting 121767
polls 121766
holes 121765
initiatives 121764
amounts 121763
Treasury 121762
finishing 121761
See 121760
length 121759
birth 121758
rivals 121757
gay 121756
roughly 121755
performing 121754
futures 121753
Royal 121752
exports 121751
tested 121750
seed 121749
blow 121748
historical 121747
starter 121746
+ 121745
guests 121744
river 121743
minor 121742
pop 121741
predicted 121740
roll 121739
acts 121738
recalled 121737
anybody 121736
strategies 121735
sharp 121734
horse 121733
Games 121732
prize 121731
valuable 121730
witness 121729
Regional 121728
drinking 121727
contribute 121726
Arkansas 121725
computers 121724
Louisiana 121723
guidelines 121722
funded 121721
delayed 121720
handling 121719
Austin 121718
Defense 121717
exclusive 121716
repeatedly 121715
academic 121714
Lebanon 121713
resource 121712
output 121711
Mitchell 121710
contributions 121709
background 121708
runner 121707
prospects 121706
filing 121705
questioned 121704
applied 121703
Test 121702
Manager 121701
ratings 121700
thank 121699
Eric 121698
Right 121697
characters 121696
wine 121695
saving 121694
lift 121693
civilians 121692
Bloomberg 121691
identity 121690
ownership 121689
obvious 121688
throwing 121687
settle 121686
tracks 121685
smart 121684
Stadium 121683
developments 121682
lunch 121681
Twitter 121680
Liverpool 121679
bail 121678
forget 121677
transition 121676
equal 121675
founder 121674
involvement 121673
gotten 121672
protesters 121671
Class 121670
ABC 121669
euros 121668
S. 121667
homer 121666
Music 121665
opponent 121664
Little 121663
competing 121662
submit 121661
projected 121660
cell 121659
monitor 121658
century 121657
sessions 121656
Parliament 121655
meets 121654
begun 121653
Navy 121652
metal 121651
critics 121650
forum 121649
honored 121648
ballot 121647
affairs 121646
desire 121645
RBI 121644
click 121643
expanding 121642
topic 121641
Following 121640
recommendations 121639
sectors 121638
Red 121637
causes 121636
Ontario 121635
ease 121634
marks 121633
consumption 121632
appointment 121631
officially 121630
argument 121629
newly 121628
Palestinians 121627
wonder 121626
` 121625
spirit 121624
Atlantic 121623
ring 121622
employers 121621
strongly 121620
registration 121619
gasoline 121618
Coach 121617
Total 121616
salary 121615
blocks 121614
classic 121613
Week 121612
educational 121611
feed 121610
managing 121609
cells 121608
stick 121607
exploration 121606
installed 121605
Gordon 121604
blamed 121603
insisted 121602
conversation 121601
trends 121600
elements 121599
guidance 121598
Baltimore 121597
charity 121596
emerged 121595
blocked 121594
replacement 121593
covering 121592
powers 121591
tourism 121590
enhance 121589
operator 121588
Roberts 121587
saved 121586
plate 121585
engaged 121584
expecting 121583
ranks 121582
donations 121581
mention 121580
immigration 121579
pension 121578
emerging 121577
moments 121576
testimony 121575
witnesses 121574
impossible 121573
LLC 121572
tries 121571
rounds 121570
exposure 121569
Trust 121568
celebration 121567
instance 121566
controversial 121565
Alex 121564
harder 121563
stress 121562
settled 121561
remarks 121560
articles 121559
false 121558
Get 121557
dominated 121556
Labor 121555
Pakistani 121554
Island 121553
Murray 121552
dramatic 121551
collapse 121550
attempted 121549
drama 121548
boards 121547
museum 121546
attract 121545
remote 121544
experiences 121543
Show 121542
chair 121541
Toyota 121540
anywhere 121539
messages 121538
developer 121537
Vancouver 121536
ads 121535
opens 121534
Journal 121533
confirm 121532
requested 121531
error 121530
Museum 121529
print 121528
pitcher 121527
contains 121526
Nelson 121525
decrease 121524
attending 121523
System 121522
integration 121521
thrown 121520
unusual 121519
stability 121518
Earth 121517
makers 121516
merger 121515
steel 121514
yield 121513
knocked 121512
square 121511
glass 121510
Lions 121509
Taiwan 121508
inspired 121507
flag 121506
Mumbai 121505
volunteer 121504
fishing 121503
activists 121502
Tokyo 121501
firefighters 121500
alongside 121499
aim 121498
guarantee 121497
clinical 121496
Good 121495
claiming 121494
staying 121493
Duke 121492
tremendous 121491
contribution 121490
terrorists 121489
wave 121488
electric 121487
restrictions 121486
recall 121485
implementation 121484
knowing 121483
skin 121482
utility 121481
CBS 121480
processes 121479
Highway 121478
halftime 121477
fix 121476
quarterly 121475
emotional 121474
maintained 121473
counter 121472
annually 121471
repair 121470
Craig 121469
Lady 121468
S_& 121467
obtain 121466
European_Union 121465
Indians 121464
abroad 121463
Mexican 121462
stable 121461
PM 121460
regions 121459
tradition 121458
totally 121457
opinions 121456
hosts 121455
citing 121454
Long 121453
pitched 121452
Larry 121451
necessarily 121450
beaten 121449
Adam 121448
reasonable 121447
drink 121446
poverty 121445
properly 121444
somebody 121443
canceled 121442
sounds 121441
sick 121440
saves 121439
Deputy 121438
Society 121437
Nick 121436
Carter 121435
lucky 121434
folks 121433
Nigeria 121432
Nevada 121431
defend 121430
Bell 121429
lights 121428
minority 121427
posting 121426
drilling 121425
differences 121424
Love 121423
regularly 121422
roster 121421
bankruptcy 121420
S 121419
participation 121418
Super_Bowl 121417
interim 121416
controls 121415
competitors 121414
stuck 121413
delivering 121412
viewers 121411
Catholic 121410
W. 121409
agreements 121408
subscribers 121407
Sometimes 121406
smoke 121405
War 121404
compliance 121403
manner 121402
trucks 121401
Back 121400
Wales 121399
yes 121398
Junior 121397
M. 121396
mistakes 121395
Gov. 121394
Baker 121393
formal 121392
investor 121391
Vietnam 121390
Oakland 121389
speculation 121388
Sam 121387
qualifying 121386
attorneys 121385
Next 121384
finds 121383
quiet 121382
cleared 121381
Everyone 121380
bag 121379
explosion 121378
taxpayers 121377
guide 121376
occur 121375
encouraging 121374
Net 121373
highway 121372
sleep 121371
recover 121370
interviews 121369
Rock 121368
Lincoln 121367
satellite 121366
entirely 121365
dry 121364
papers 121363
Where 121362
soldier 121361
covers 121360
exhibition 121359
Science 121358
blast 121357
capture 121356
FDA 121355
function 121354
availability 121353
Commissioner 121352
lending 121351
peak 121350
wild 121349
facts 121348
procedures 121347
lap 121346
awareness 121345
Up 121344
pursue 121343
edition 121342
studio 121341
correct 121340
inch 121339
Great 121338
Systems 121337
switch 121336
participating 121335
tend 121334
champions 121333
Kim 121332
Blue 121331
lay 121330
Trade 121329
purposes 121328
departments 121327
THE 121326
ranking 121325
addressed 121324
Olympics 121323
perspective 121322
Marshall 121321
Ltd. 121320
Moscow 121319
components 121318
Having 121317
seized 121316
clothing 121315
Kansas_City 121314
drawing 121313
resistance 121312
choices 121311
recording 121310
demanding 121309
urban 121308
pages 121307
Windows 121306
doubled 121305
suspension 121304
manufacturer 121303
innovation 121302
climbed 121301
Mobile 121300
Russell 121299
Adams 121298
Industry 121297
Cardinals 121296
port 121295
Panthers 121294
runners 121293
G 121292
brothers 121291
visits 121290
implement 121289
All_Star 121288
relatives 121287
al_Qaida 121286
atmosphere 121285
defined 121284
absence 121283
steady 121282
branch 121281
pitching 121280
NBC 121279
normally 121278
gathering 121277
signal 121276
administrative 121275
empty 121274
obligation 121273
Legislature 121272
commander 121271
prompted 121270
falls 121269
taught 121268
promotion 121267
Muslims 121266
incidents 121265
operational 121264
Water 121263
pricing 121262
silver 121261
subsidiary 121260
qualify 121259
Art 121258
escape 121257
wealth 121256
singles 121255
roof 121254
extent 121253
privacy 121252
Students 121251
spots 121250
tennis 121249
grants 121248
transactions 121247
Speaking 121246
scientific 121245
export 121244
Ray 121243
referring 121242
preliminary 121241
rooms 121240
sanctions 121239
degrees 121238
eating 121237
legislative 121236
Morgan 121235
resume 121234
involve 121233
resolve 121232
operated 121231
sexual 121230
prospect 121229
typical 121228
Bears 121227
membership 121226
Murphy 121225
hiring 121224
Rice 121223
consideration 121222
AT_& 121221
civilian 121220
fairly 121219
climate_change 121218
investigate 121217
violations 121216
pipeline 121215
seeks 121214
crore 121213
hire 121212
Investors 121211
Online 121210
Alaska 121209
###th 121208
theme 121207
stressed 121206
Exchange_Commission 121205
resort 121204
Tour 121203
walks 121202
roles 121201
rebound 121200
reference 121199
Analysts 121198
specialist 121197
timing 121196
Bureau 121195
imagine 121194
rapidly 121193
angry 121192
riding 121191
violation 121190
attitude 121189
guest 121188
select 121187
tech 121186
Cameron 121185
barrels 121184
sensitive 121183
hosting 121182
demanded 121181
Graham 121180
marijuana 121179
intent 121178
BBC 121177
@ 121176
strengthen 121175
channels 121174
ministers 121173
newspapers 121172
referred 121171
Building 121170
testified 121169
column 121168
Ross 121167
Terry 121166
arrive 121165
Unfortunately 121164
rushed 121163
kilometers 121162
frame 121161
provision 121160
authorized 121159
fail 121158
completion 121157
traveled 121156
Daily 121155
heavily 121154
acquire 121153
striking 121152
virus 121151
DVD 121150
Index 121149
secured 121148
breaks 121147
Greg 121146
attractive 121145
Portland 121144
indeed 121143
approve 121142
survived 121141
intense 121140
somewhat 121139
aims 121138
crews 121137
protected 121136
checks 121135
distributed 121134
talented 121133
kicked 121132
permission 121131
Tech 121130
judgment 121129
IBM 121128
beer 121127
clothes 121126
Administration 121125
Maine 121124
coal 121123
Intel 121122
packed 121121
promoting 121120
flood 121119
approached 121118
Washington_DC 121117
towns 121116
disappointing 121115
Old 121114
collaboration 121113
hopefully 121112
streak 121111
Based 121110
balls 121109
pleaded_guilty 121108
sustained 121107
noticed 121106
permit 121105
beach 121104
Grant 121103
collect 121102
journey 121101
victories 121100
Greece 121099
statistics 121098
fantastic 121097
rail 121096
Take 121095
hundred 121094
pack 121093
broadband 121092
Air_Force 121091
cycle 121090
delays 121089
comedy 121088
thoughts 121087
hardware 121086
solar 121085
Finance 121084
bound 121083
Price 121082
proceeds 121081
Cincinnati 121080
suicide 121079
prisoners 121078
discovery 121077
dad 121076
searching 121075
longtime 121074
Pentagon 121073
premier 121072
command 121071
enables 121070
###-### 121069
ranging 121068
nobody 121067
actress 121066
aspects 121065
fled 121064
Melbourne 121063
Orange 121062
videos 121061
Federal_Reserve 121060
cricket 121059
Asked 121058
ratio 121057
birthday 121056
Radio 121055
restructuring 121054
episode 121053
Field 121052
Parker 121051
cameras 121050
persons 121049
championships 121048
answers 121047
promises 121046
unknown 121045
argue 121044
differ_materially 121043
Rose 121042
NYSE 121041
Evans 121040
surge 121039
focusing 121038
doubles 121037
Bruce 121036
donated 121035
ideal 121034
equivalent 121033
reliable 121032
sustainable 121031
factory 121030
Without 121029
scenes 121028
survive 121027
contacted 121026
mph 121025
residence 121024
trips 121023
hotels 121022
bat 121021
unclear 121020
gang 121019
grounds 121018
slipped 121017
carrier 121016
bases 121015
prosecutor 121014
categories 121013
liked 121012
accurate 121011
advised 121010
slowly 121009
Read 121008
abortion 121007
mom 121006
Mets 121005
tons 121004
Perhaps 121003
requests 121002
forcing 121001
frequently 121000
overcome 120999
inquiry 120998
situations 120997
apparent 120996
map 120995
universities 120994
bear 120993
Staff 120992
Whether 120991
stroke 120990
medicine 120989
drives 120988
reforms 120987
vendors 120986
defending 120985
teach 120984
medium 120983
prime 120982
Andy 120981
Governor 120980
basically 120979
exposed 120978
Hotel 120977
F 120976
Ms 120975
dialogue 120974
Indonesia 120973
stimulus 120972
Alliance 120971
probe 120970
Perry 120969
Ron 120968
methods 120967
shall 120966
landed 120965
stages 120964
credit_card 120963
luxury 120962
dates 120961
vulnerable 120960
preparation 120959
regulators 120958
indicate 120957
appearances 120956
theft 120955
appreciate 120954
complained 120953
Memorial 120952
Oh 120951
chemical 120950
relative 120949
Transportation 120948
consequences 120947
imposed 120946
rolled 120945
alert 120944
virtually 120943
provincial 120942
Sony 120941
forecasts 120940
Dean 120939
strikes 120938
athletic 120937
neck 120936
tourists 120935
cell_phone 120934
sad 120933
pct 120932
Arsenal 120931
prominent 120930
allies 120929
Josh 120928
writes 120927
alliance 120926
method 120925
meanwhile 120924
Simon 120923
Morris 120922
Beach 120921
crude 120920
suffer 120919
files 120918
quit 120917
Syria 120916
deployed 120915
Phillips 120914
shock 120913
Communications 120912
picking 120911
clock 120910
posts 120909
regard 120908
convention 120907
penalties 120906
backing 120905
rapid 120904
independence 120903
novel 120902
central_bank 120901
Korean 120900
scandal 120899
campaigns 120898
Assembly 120897
widespread 120896
species 120895
audio 120894
explains 120893
investing 120892
NASA 120891
Tickets 120890
welcomed 120889
detail 120888
unions 120887
moderate 120886
religion 120885
earthquake 120884
wedding 120883
grabbed 120882
Don 120881
Thailand 120880
Six 120879
restore 120878
plot 120877
Milwaukee 120876
lifted 120875
coffee 120874
Keep 120873
sun 120872
honest 120871
passion 120870
periods 120869
publication 120868
Saints 120867
swing 120866
Wood 120865
Calif. 120864
toll 120863
master 120862
useful 120861
eliminate 120860
answered 120859
congressional 120858
neighbor 120857
dropping 120856
weapon 120855
promising 120854
maintaining 120853
seeded 120852
arrival 120851
soft 120850
format 120849
honors 120848
trillion 120847
teen 120846
smoking 120845
Collins 120844
impressed 120843
consultant 120842
tiny 120841
temperatures 120840
adviser 120839
windows 120838
Cook 120837
shelter 120836
deadly 120835
label 120834
noting 120833
foul 120832
Form 120831
commissioner 120830
Sri_Lanka 120829
Rogers 120828
sheriff 120827
Stanford 120826
succeed 120825
nomination 120824
upgrade 120823
Montreal 120822
rely 120821
string 120820
trail 120819
aged 120818
traders 120817
triple 120816
personally 120815
implemented 120814
preferred 120813
winds 120812
lies 120811
Victoria 120810
Marketing 120809
exist 120808
Besides 120807
Labour 120806
Dutch 120805
Attorney_General 120804
proof 120803
tank 120802
etc. 120801
zero 120800
secondary 120799
Special 120798
consistently 120797
delighted 120796
Rodriguez 120795
defender 120794
suddenly 120793
Wayne 120792
Go 120791
garden 120790
e 120789
routine 120788
anonymity 120787
Barack_Obama 120786
postseason 120785
introduce 120784
venue 120783
teens 120782
free_throws 120781
affordable 120780
Others 120779
Franklin 120778
meat 120777
resigned 120776
Way 120775
attendance 120774
suppliers 120773
concrete 120772
#.##_ERA 120771
repeat 120770
anyway 120769
solve 120768
convinced 120767
McDonald 120766
St 120765
Charlotte 120764
legs 120763
uncertainty 120762
Given 120761
cheap 120760
programming 120759
Theatre 120758
neighboring 120757
Solutions 120756
helicopter 120755
demonstrated 120754
bright 120753
comeback 120752
offset 120751
forth 120750
harm 120749
##st 120748
protecting 120747
detained 120746
NY 120745
meter 120744
earning 120743
glad 120742
duties 120741
#:##.## 120740
rated 120739
upper 120738
dividend 120737
senator 120736
Jerry 120735
Haiti 120734
World_Series 120733
pulling 120732
organizers 120731
exit 120730
Ward 120729
shoes 120728
entitled 120727
viewed 120726
clash 120725
Madison 120724
courses 120723
Area 120722
Manhattan 120721
bike 120720
Insurance 120719
afraid 120718
billions 120717
€ 120716
hardly 120715
download 120714
Stock_Exchange 120713
petition 120712
bonus 120711
lying 120710
elderly 120709
reflects 120708
hate 120707
errors 120706
kinds 120705
Look 120704
Arts 120703
Chamber 120702
Medicare 120701
Lane 120700
Senator 120699
belief 120698
Hawaii 120697
Cooper 120696
assigned 120695
crazy 120694
arts 120693
Turner 120692
retain 120691
longest 120690
crashed 120689
TM 120688
guards 120687
Members 120686
assume 120685
mouth 120684
sufficient 120683
barely 120682
Libya 120681
sharply 120680
Yahoo 120679
connect 120678
offerings 120677
funeral 120676
express 120675
kitchen 120674
Wal_Mart 120673
purchases 120672
Youth 120671
averaged 120670
gaming 120669
disclosed 120668
kills 120667
investigations 120666
constitution 120665
flexibility 120664
Red_Sox 120663
Iraqis 120662
Boeing 120661
burning 120660
extreme 120659
updated 120658
Festival 120657
unprecedented 120656
Reid 120655
Al 120654
dealers 120653
acquisitions 120652
backup 120651
Lakers 120650
faculty 120649
prosecution 120648
tired 120647
Hughes 120646
ups 120645
Blair 120644
Zimbabwe 120643
optimistic 120642
pledged 120641
temperature 120640
Lawrence 120639
NASCAR 120638
Bulldogs 120637
funny 120636
Alan 120635
handful 120634
targeting 120633
broader 120632
rape 120631
intention 120630
super 120629
L. 120628
regardless 120627
nights 120626
abandoned 120625
Matthew 120624
birds 120623
sponsor 120622
Cuba 120621
airlines 120620
Buffalo 120619
tips 120618
conviction 120617
celebrated 120616
Revenue 120615
taste 120614
relating 120613
citizen 120612
locked 120611
Coast 120610
Sarah 120609
paint 120608
load 120607
essentially 120606
symptoms 120605
horses 120604
#-#-# 120603
Steven 120602
reviewed 120601
guns 120600
Douglas 120599
handled 120598
Jets 120597
emissions 120596
hurricane 120595
walls 120594
counsel 120593
consensus 120592
DNA 120591
reveal 120590
everywhere 120589
occasion 120588
carefully 120587
understood 120586
inventory 120585
engage 120584
lease 120583
incredible 120582
constant 120581
sons 120580
compromise 120579
Authority 120578
Christopher 120577
Mountain 120576
shops 120575
Turkish 120574
worries 120573
raises 120572
Out 120571
Cabinet 120570
Obviously 120569
opposite 120568
fitness 120567
database 120566
Brandon 120565
diverse 120564
stops 120563
battery 120562
parks 120561
Medical_Center 120560
rush 120559
Constitution 120558
burden 120557
controversy 120556
departure 120555
luck 120554
rebels 120553
repeated 120552
involves 120551
firing 120550
troubled 120549
Korea 120548
benchmark 120547
backs 120546
anymore 120545
Tyler 120544
institution 120543
keen 120542
fighters 120541
rallied 120540
contrast 120539
Village 120538
invested 120537
Video 120536
assembly 120535
Ottawa 120534
LA 120533
intends 120532
Swiss 120531
Bryant 120530
plastic 120529
New_Hampshire 120528
converted 120527
depending 120526
Later 120525
ordinary 120524
West_Virginia 120523
credits 120522
flooding 120521
Indianapolis 120520
actors 120519
productivity 120518
democratic 120517
Sean 120516
transferred 120515
tip 120514
interactive 120513
County_Sheriff 120512
casino 120511
basket 120510
chip 120509
bet 120508
writers 120507
execution 120506
requirement 120505
automatically 120504
Jan 120503
Fame 120502
plea 120501
Richmond 120500
i 120499
Justin 120498
machines 120497
please_visit 120496
modest 120495
Malaysia 120494
procedure 120493
Mrs. 120492
calm 120491
updates 120490
unveiled 120489
Golden 120488
Warren 120487
Jefferson 120486
swept 120485
loose 120484
latter 120483
nervous 120482
agriculture 120481
valued 120480
pregnant 120479
Awards 120478
conclusion 120477
homeowners 120476
household 120475
prefer 120474
enforcement 120473
Lord 120472
Prosecutors 120471
requiring 120470
definition 120469
demonstrate 120468
parade 120467
Anyone 120466
'##s 120465
hero 120464
Sgt 120463
economists 120462
rushing 120461
explore 120460
decreased 120459
patrol 120458
surprising 120457
diabetes 120456
component 120455
anger 120454
incentives 120453
Channel 120452
Live 120451
Nebraska 120450
Premier_League 120449
Republic 120448
carriers 120447
Sullivan 120446
commented 120445
teammate 120444
legacy 120443
Argentina 120442
fleet 120441
fat 120440
presents 120439
vacation 120438
introduction 120437
discount 120436
Ken 120435
provisions 120434
GDP 120433
praised 120432
Note 120431
lane 120430
Saudi_Arabia 120429
sells 120428
enhanced 120427
insurgents 120426
copies 120425
pride 120424
odds 120423
employed 120422
challenged 120421
singing 120420
equally 120419
collapsed 120418
thousand 120417
Football 120416
landing 120415
techniques 120414
III 120413
BC 120412
Butler 120411
item 120410
objective 120409
Stars 120408
robbery 120407
planes 120406
supplier 120405
comparison 120404
Rick 120403
Until 120402
Investment 120401
Township 120400
gifts 120399
engineers 120398
San_Jose 120397
burned 120396
Attorney 120395
arrests 120394
Patriots 120393
feedback 120392
bags 120391
revised 120390
versions 120389
agricultural 120388
Plan 120387
extraordinary 120386
sight 120385
Neither 120384
Baseball 120383
recruiting 120382
attacking 120381
Chrysler 120380
describe 120379
retailer 120378
reflected 120377
conspiracy 120376
Point 120375
Islam 120374
Richardson 120373
Library 120372
calendar 120371
Finally 120370
creates 120369
Broadway 120368
minds 120367
Wildcats 120366
Have 120365
midnight 120364
Elizabeth 120363
functions 120362
Scottish 120361
virtual 120360
delivers 120359
resignation 120358
Tehran 120357
badly 120356
indication 120355
commit 120354
Orlando 120353
pitches 120352
gallon 120351
ultimate 120350
beauty 120349
spoken 120348
invasion 120347
fires 120346
concerning 120345
waters 120344
authors 120343
tea 120342
turnovers 120341
advisory 120340
Memphis 120339
buried 120338
rent 120337
HIV 120336
Rob 120335
Jonathan 120334
probation 120333
excess 120332
girlfriend 120331
striker 120330
colleges 120329
Did 120328
priced 120327
fastest 120326
robust 120325
tracking 120324
participated 120323
lie 120322
dating 120321
Super 120320
Shanghai 120319
bowl 120318
highlight 120317
guaranteed 120316
R. 120315
chapter 120314
Poor 120313
tape 120312
Express 120311
server 120310
deployment 120309
shareholder 120308
Marine 120307
enormous 120306
homeless 120305
illness 120304
hall 120303
exhibit 120302
soil 120301
##nd 120300
noise 120299
outs 120298
deserve 120297
Disney 120296
Currently 120295
CIA 120294
rolling 120293
rarely 120292
adoption 120291
peaceful 120290
C. 120289
containing 120288
felony 120287
Warriors 120286
elite 120285
cabinet 120284
sponsors 120283
World_War_II 120282
economies 120281
hike 120280
arena 120279
solo 120278
platforms 120277
liability 120276
outdoor 120275
somewhere 120274
Ed 120273
displayed 120272
Alexander 120271
divided 120270
context 120269
Keith 120268
clinic 120267
lifestyle 120266
flew 120265
Part 120264
de 120263
screening 120262
dramatically 120261
Pirates 120260
Watson 120259
classroom 120258
contractors 120257
fundamental 120256
partly 120255
ensuring 120254
Oscar 120253
Entertainment 120252
tackles 120251
Gates 120250
slide 120249
suggesting 120248
ill 120247
imports 120246
highlights 120245
Airport 120244
Garcia 120243
assured 120242
bunch 120241
constantly 120240
holidays 120239
touched 120238
attempting 120237
fate 120236
listening 120235
» 120234
legislators 120233
decent 120232
Pat 120231
risen 120230
hanging 120229
certified 120228
nominated 120227
Executive 120226
lists 120225
averaging 120224
lessons 120223
closure 120222
lifetime 120221
CD 120220
Sudan 120219
Data 120218
Head 120217
Fisher 120216
wider 120215
shocked 120214
Chief_Executive_Officer 120213
RBIs 120212
destination 120211
tens 120210
recommendation 120209
buses 120208
phones 120207
Caribbean 120206
acre 120205
Delta 120204
observed 120203
trials 120202
subsequent 120201
scenario 120200
shipping 120199
liberal 120198
lab 120197
pet 120196
Todd 120195
milk 120194
rumors 120193
Kenya 120192
IP 120191
municipal 120190
Phil 120189
starters 120188
Prior 120187
2nd 120186
bombing 120185
popularity 120184
thirds 120183
bailout 120182
menu 120181
asks 120180
Aaron 120179
tragedy 120178
packages 120177
interviewed 120176
Companies 120175
licenses 120174
Check 120173
Additionally 120172
memories 120171
colors 120170
consulting 120169
constitutional 120168
welfare 120167
nonprofit 120166
designs 120165
verdict 120164
defendants 120163
ankle 120162
sparked 120161
Limited 120160
Investigators 120159
Contact 120158
##th_century 120157
remarkable 120156
accompanied 120155
briefly 120154
AFP 120153
Montana 120152
letting 120151
Hudson 120150
receiver 120149
Overall 120148
wore 120147
Kings 120146
dynamic 120145
Third 120144
1st 120143
Directors 120142
attached 120141
tone 120140
reverse 120139
Brazilian 120138
Columbus 120137
survival 120136
establishment 120135
meal 120134
joint_venture 120133
Country 120132
reception 120131
promoted 120130
memorial 120129
warrant 120128
complicated 120127
inmates 120126
Does 120125
rough 120124
earth 120123
merely 120122
eliminated 120121
smile 120120
Miss 120119
checked 120118
J 120117
adjusted 120116
sweep 120115
leverage 120114
Sacramento 120113
Annual 120112
external 120111
mountain 120110
amendment 120109
associate 120108
Plus 120107
preserve 120106
attracted 120105
defendant 120104
sorry 120103
recovering 120102
subjects 120101
Masters 120100
N. 120099
Peterson 120098
diagnosed 120097
enabling 120096
legitimate 120095
terrible 120094
Philippines 120093
studying 120092
shed 120091
achievement 120090
delegation 120089
launching 120088
Classic 120087
dress 120086
DC 120085
reward 120084
Jennifer 120083
circuit 120082
Birmingham 120081
boxes 120080
vast 120079
adopt 120078
affair 120077
formerly 120076
Men 120075
enjoying 120074
predict 120073
respective 120072
recommend 120071
Sweden 120070
permits 120069
pattern 120068
admits 120067
HP 120066
Dennis 120065
renewed 120064
Vikings 120063
Place 120062
Blues 120061
satisfied 120060
principles 120059
crossed 120058
travelers 120057
landscape 120056
deposits 120055
Construction 120054
aboard 120053
Susan 120052
LONDON 120051
narrow 120050
practical 120049
installation 120048
D. 120047
San_Antonio 120046
samples 120045
exception 120044
halt 120043
loaded 120042
Delaware 120041
Harrison 120040
Station 120039
Tribune 120038
vaccine 120037
cup 120036
websites 120035
Make 120034
urging 120033
unlike 120032
purchasing 120031
sudden 120030
lined 120029
Hunter 120028
tonnes 120027
Summit 120026
wood 120025
eager 120024
climb 120023
careful 120022
mode 120021
enemy 120020
wanting 120019
engineer 120018
desperate 120017
AIDS 120016
Further 120015
commissioners 120014
Enterprise 120013
powered 120012
dealt 120011
oldest 120010
Indeed 120009
admission 120008
Friends 120007
connections 120006
therapy 120005
Roy 120004
topics 120003
comfort 120002
hang 120001
addressing 120000
celebrity 119999
Unlike 119998
theory 119997
singled 119996
donation 119995
listing 119994
depends 119993
audit 119992
employer 119991
corporations 119990
ships 119989
Creek 119988
winning_streak 119987
boom 119986
raid 119985
Key 119984
innocent 119983
Agriculture 119982
Spring 119981
fence 119980
Route 119979
gather 119978
bars 119977
stole 119976
Northwest 119975
sentiment 119974
cheaper 119973
Poland 119972
Ukraine 119971
journalist 119970
Cubs 119969
rental 119968
filings 119967
Barry 119966
preseason 119965
deeply 119964
flu 119963
Egyptian 119962
topped 119961
van 119960
advocates 119959
speaks 119958
yellow 119957
Bridge 119956
Photo 119955
accuracy 119954
determination 119953
Nearly 119952
Hope 119951
Greek 119950
takeover 119949
loves 119948
intend 119947
grand 119946
Bennett 119945
Bradley 119944
conducting 119943
deposit 119942
routes 119941
graduated 119940
Everything 119939
underlying 119938
Forum 119937
neighborhoods 119936
objectives 119935
spotted 119934
speaker 119933
Hopefully 119932
matched 119931
pharmaceutical 119930
households 119929
Economic 119928
™ 119927
hunting 119926
prevention 119925
highlighted 119924
announcing 119923
insists 119922
reviews 119921
daughters 119920
Additional 119919
capability 119918
vice 119917
weakness 119916
Forest 119915
Brad 119914
Casey 119913
flexible 119912
spokesperson 119911
Prince 119910
electronics 119909
deny 119908
structures 119907
presidency 119906
adequate 119905
CNN 119904
Michelle 119903
admit 119902
Professor 119901
LOS_ANGELES 119900
retire 119899
forever 119898
humans 119897
coordinator 119896
telecommunications 119895
emphasis 119894
Co 119893
defended 119892
crossing 119891
studied 119890
wages 119889
Queen 119888
conversion 119887
proceedings 119886
sweet 119885
rear 119884
organic 119883
hopeful 119882
Cox 119881
releases 119880
aspect 119879
Notre_Dame 119878
gear 119877
Social 119876
superior 119875
bands 119874
resolved 119873
salaries 119872
mental 119871
homers 119870
Assistant 119869
liquidity 119868
bedroom 119867
Powell 119866
charter 119865
District_Court 119864
Seven 119863
Thanks 119862
entrance 119861
lake 119860
Phillies 119859
statewide 119858
Everybody 119857
element 119856
Red_Cross 119855
Packers 119854
camps 119853
chase 119852
Review 119851
ambassador 119850
Liberty 119849
difficulties 119848
Doug 119847
surveillance 119846
totaled 119845
militant 119844
crop 119843
fault 119842
vowed 119841
thin 119840
boats 119839
dominant 119838
considerable 119837
Foreign 119836
Netherlands 119835
damages 119834
Cowboys 119833
Major 119832
fruit 119831
Fair 119830
stopping 119829
profitable 119828
deciding 119827
nursing 119826
Independent 119825
NC 119824
tsunami 119823
##,###.## 119822
extending 119821
semifinals 119820
input 119819
referendum 119818
Being 119817
anniversary 119816
respected 119815
violated 119814
assess 119813
puck 119812
lenders 119811
arrangements 119810
criteria 119809
celebrating 119808
frustrated 119807
marketplace 119806
cooking 119805
install 119804
Sharon 119803
affecting 119802
3_pointer 119801
rugby 119800
forest 119799
cloud 119798
contractor 119797
chest 119796
Idaho 119795
H 119794
signature 119793
uniform 119792
accidents 119791
intervention 119790
tougher 119789
teenager 119788
gambling 119787
mortgages 119786
standings 119785
evaluation 119784
Wallace 119783
planet 119782
dressed 119781
underground 119780
exact 119779
conservation 119778
midfielder 119777
Grand 119776
depend 119775
replacing 119774
Night 119773
headline 119772
questioning 119771
athlete 119770
Saddam 119769
wide_range 119768
comparable 119767
accomplished 119766
ordinance 119765
feared 119764
discussing 119763
riders 119762
Champions_League 119761
Ian 119760
copper 119759
Using 119758
unexpected 119757
administrators 119756
favorable 119755
Montgomery 119754
painting 119753
Port 119752
comply 119751
headquartered 119750
gross 119749
Social_Security 119748
picks 119747
diplomatic 119746
lighting 119745
tobacco 119744
Should 119743
feelings 119742
pays 119741
LSU 119740
documentary 119739
Tampa_Bay 119738
addresses 119737
senators 119736
linebacker 119735
Safety 119734
cleaning 119733
withdrawal 119732
brilliant 119731
custom 119730
priorities 119729
economist 119728
Spurs 119727
Again 119726
waited 119725
Metro 119724
Armstrong 119723
furniture 119722
sub 119721
ESPN 119720
turnover 119719
costly 119718
height 119717
volumes 119716
Harvard 119715
Jon 119714
till 119713
grab 119712
Reed 119711
completing 119710
sample 119709
equipped 119708
delegates 119707
favorites 119706
shortage 119705
Early 119704
publisher 119703
estate 119702
hitter 119701
globe 119700
Newcastle 119699
Residents 119698
evaluate 119697
Schools 119696
sits 119695
venture 119694
shoppers 119693
Gray 119692
designated 119691
tying 119690
signals 119689
lesson 119688
Kyle 119687
Jesus 119686
licensed 119685
escaped 119684
booked 119683
Dow 119682
Cole 119681
survivors 119680
Charlie 119679
Southwest 119678
integrity 119677
unchanged 119676
trains 119675
mainstream 119674
managing_director 119673
ignored 119672
Airlines 119671
Ellis 119670
Officers 119669
negotiate 119668
Jews 119667
receives 119666
Kent 119665
ethnic 119664
Ferguson 119663
focuses 119662
breakfast 119661
laps 119660
measured 119659
produces 119658
skill 119657
3rd 119656
indicates 119655
Angels 119654
branches 119653
Jay 119652
surrounded 119651
Region 119650
detention 119649
Rome 119648
York 119647
Venezuela 119646
tears 119645
examine 119644
visible 119643
steal 119642
Auburn 119641
generations 119640
Gas 119639
Ashley 119638
square_foot 119637
deemed 119636
fatal 119635
Hawks 119634
Switzerland 119633
mess 119632
mandate 119631
budgets 119630
Barcelona 119629
suite 119628
deeper 119627
pilots 119626
publishing 119625
grass 119624
meals 119623
enabled 119622
footage 119621
Citigroup 119620
sections 119619
Looking 119618
transmission 119617
everyday 119616
literally 119615
tires 119614
acted 119613
photographs 119612
automotive 119611
somehow 119610
investigated 119609
slated 119608
dancing 119607
electrical 119606
bulk 119605
designer 119604
highs 119603
excluding 119602
chamber 119601
checking 119600
3D 119599
corn 119598
snapped 119597
hidden 119596
MP 119595
scholarship 119594
fundraising 119593
Nashville 119592
boosted 119591
USC 119590
moral 119589
declining 119588
trainer 119587
proprietary 119586
Much 119585
bids 119584
Stevens 119583
Berlin 119582
churches 119581
audiences 119580
Software 119579
Kids 119578
Singh 119577
blew 119576
Verizon 119575
EPA 119574
crack 119573
withdraw 119572
gaining 119571
Work 119570
tap 119569
math 119568
Harper 119567
Square 119566
wrapped 119565
Foster 119564
thrilled 119563
###-## 119562
Federation 119561
sued 119560
charging 119559
Lisa 119558
Canadians 119557
Bangladesh 119556
foods 119555
arguing 119554
placing 119553
trades 119552
End 119551
childhood 119550
scope 119549
lawsuits 119548
disclosure 119547
pump 119546
inspection 119545
villages 119544
spin 119543
knock 119542
offshore 119541
global_warming 119540
capped 119539
formally 119538
physicians 119537
existence 119536
responsibilities 119535
mood 119534
witnessed 119533
trophy 119532
Martinez 119531
grades 119530
Standard_& 119529
oppose 119528
airports 119527
demonstration 119526
Palin 119525
safely 119524
litigation 119523
incentive 119522
fake 119521
garage 119520
judicial 119519
Hundreds 119518
arguments 119517
catches 119516
destruction 119515
borders 119514
disabled 119513
None 119512
Nokia 119511
Line 119510
Barnes 119509
workshop 119508
stream 119507
strange 119506
Nasdaq 119505
drill 119504
##rd 119503
Action 119502
divisions 119501
administrator 119500
hunt 119499
Representatives 119498
sophisticated 119497
Queensland 119496
sugar 119495
discrimination 119494
Exchange 119493
nationally 119492
stance 119491
obligations 119490
passage 119489
workforce 119488
announces 119487
span 119486
restricted 119485
hearings 119484
punishment 119483
Freedom 119482
Carroll 119481
Brooks 119480
Dodgers 119479
##,###,### 119478
immigrants 119477
margins 119476
excitement 119475
diseases 119474
Nothing 119473
Support 119472
Chavez 119471
lets 119470
discipline 119469
Jerusalem 119468
toys 119467
wage 119466
Reds 119465
accepting 119464
balanced 119463
nuclear_weapons 119462
Along 119461
accessible 119460
actively 119459
jet 119458
architecture 119457
Mrs 119456
illegally 119455
personality 119454
debris 119453
Bonds 119452
responding 119451
fines 119450
replied 119449
aging 119448
Hispanic 119447
fed 119446
filling 119445
activist 119444
march 119443
tenure 119442
hometown 119441
Bond 119440
pocket 119439
Simpson 119438
Thanksgiving 119437
conventional 119436
segments 119435
burn 119434
yuan 119433
battling 119432
quake 119431
currencies 119430
exceptional 119429
YouTube 119428
strongest 119427
encounter 119426
perfectly 119425
Me 119424
Portugal 119423
bottle 119422
Results 119421
Vermont 119420
Mills 119419
lady 119418
crude_oil 119417
slip 119416
laugh 119415
beef 119414
Players 119413
Oracle 119412
Cash 119411
overhaul 119410
buyer 119409
Ali 119408
rank 119407
locally 119406
Heat 119405
Stocks 119404
principle 119403
Mason 119402
Section 119401
framework 119400
Edward 119399
Inc 119398
rebel 119397
blaze 119396
PRNewswire 119395
Sea 119394
patent 119393
Rev. 119392
collecting 119391
UCLA 119390
rid 119389
devastating 119388
donors 119387
identification 119386
editorial 119385
Blake 119384
compound 119383
networking 119382
Dell 119381
GMT 119380
Watch 119379
prevented 119378
Southern_California 119377
uncertain 119376
Yesterday 119375
Camp 119374
babies 119373
slight 119372
removal 119371
Louisville 119370
Bulls 119369
Partners 119368
storms 119367
greatly 119366
torture 119365
trapped 119364
roots 119363
Farm 119362
difficulty 119361
slowed 119360
cash_flow 119359
physically 119358
specialty 119357
weaker 119356
insight 119355
Ltd 119354
Kashmir 119353
fined 119352
diet 119351
Linda 119350
commodities 119349
pollution 119348
gym 119347
Rams 119346
###### 119345
triggered 119344
tournaments 119343
km 119342
newest 119341
Herald 119340
Silver 119339
accommodate 119338
unfair 119337
humanitarian 119336
Clarke 119335
achievements 119334
offenses 119333
Braves 119332
intersection 119331
repairs 119330
Lebanese 119329
Midwest 119328
executed 119327
##th_anniversary 119326
flowers 119325
parliamentary 119324
Chase 119323
assumptions 119322
batting 119321
breach 119320
reductions 119319
stunning 119318
suspicious 119317
Roger 119316
B. 119315
appealed 119314
pointing 119313
Use 119312
finale 119311
profitability 119310
Raiders 119309
suitable 119308
4th 119307
establishing 119306
chips 119305
responses 119304
dying 119303
tune 119302
sky 119301
remembered 119300
prizes 119299
Randy 119298
discover 119297
generating 119296
slowdown 119295
frustration 119294
surely 119293
Marines 119292
circle 119291
Nobody 119290
drought 119289
Laura 119288
spectacular 119287
Details 119286
musicians 119285
Interstate 119284
hell 119283
lock 119282
dreams 119281
impose 119280
displays 119279
Which 119278
MD 119277
South_Korean 119276
Karen 119275
temporarily 119274
button 119273
communicate 119272
States 119271
arriving 119270
Duncan 119269
trailer 119268
licensing 119267
Wells 119266
wheel 119265
Henderson 119264
lasted 119263
ocean 119262
tribute 119261
urge 119260
MPs 119259
meaningful 119258
anticipate 119257
attributed 119256
automatic 119255
Corporate 119254
Northeast 119253
prestigious 119252
ID 119251
treatments 119250
finances 119249
suggestions 119248
parked 119247
frequent 119246
declines 119245
pole 119244
restored 119243
shore 119242
Digital 119241
n 119240
Green_Bay 119239
enterprises 119238
joins 119237
transit 119236
formation 119235
Steelers 119234
Comments 119233
viewing 119232
Ghana 119231
negotiating 119230
rises 119229
productive 119228
N 119227
Capitol 119226
unity 119225
Racing 119224
finger 119223
infected 119222
Housing 119221
achieving 119220
Garden 119219
sporting 119218
divorce 119217
hide 119216
disappeared 119215
crowds 119214
duo 119213
acceptable 119212
Tournament 119211
donate 119210
Notes 119209
pursuing 119208
rotation 119207
wound 119206
speakers 119205
considers 119204
accounted 119203
describes 119202
Technologies 119201
physician 119200
contemporary 119199
matching 119198
USD 119197
chemicals 119196
Fort 119195
Television 119194
jailed 119193
commitments 119192
notified 119191
`_s 119190
maintains 119189
pleaded 119188
diversity 119187
teenagers 119186
painful 119185
drafted 119184
explanation 119183
Bishop 119182
assisted 119181
safer 119180
Bailey 119179
boyfriend 119178
convince 119177
destroy 119176
Medicaid 119175
Gonzalez 119174
formula 119173
blown 119172
Harry 119171
Things 119170
BJP 119169
Foreign_Minister 119168
odd 119167
baseman 119166
holders 119165
###m 119164
wars 119163
coastal 119162
White_Sox 119161
Quebec 119160
breast_cancer 119159
grandchildren 119158
impression 119157
showcase 119156
manages 119155
surged 119154
trio 119153
UAE 119152
contributing 119151
caution 119150
provinces 119149
description 119148
grateful 119147
bombs 119146
cocaine 119145
unbeaten 119144
wildlife 119143
edged 119142
understands 119141
usage 119140
coached 119139
jurors 119138
accordance 119137
reviewing 119136
subscription 119135
suspicion 119134
rankings 119133
philosophy 119132
Gibson 119131
occasions 119130
shirt 119129
whenever 119128
O'Brien 119127
Consumer 119126
Hills 119125
underway 119124
implementing 119123
killings 119122
demonstrations 119121
approaches 119120
indictment 119119
Rather 119118
fortunate 119117
subsidiaries 119116
mini 119115
dual 119114
swimming 119113
fueled 119112
proceed 119111
Wade 119110
emerge 119109
Euro 119108
wet 119107
fights 119106
Cost 119105
rocket 119104
examined 119103
respondents 119102
Sheriff 119101
blocking 119100
preventing 119099
majors 119098
guarantees 119097
training_camp 119096
disappointment 119095
counting 119094
wise 119093
treating 119092
cautious 119091
tactics 119090
examples 119089
kicks 119088
Unit 119087
Reports 119086
V 119085
shake 119084
headlines 119083
carbon 119082
sisters 119081
ethics 119080
choosing 119079
oversight 119078
doubts 119077
reader 119076
Thai 119075
Federer 119074
Falcons 119073
youngest 119072
killer 119071
Amy 119070
bats 119069
ounce 119068
appearing 119067
neutral 119066
projections 119065
suburban 119064
Announces 119063
nurses 119062
advocate 119061
square_feet 119060
Banks 119059
joy 119058
pledge 119057
Calgary 119056
O 119055
disclose 119054
cat 119053
praise 119052
cargo 119051
slowing 119050
wishes 119049
Money 119048
wholesale 119047
Latin_America 119046
conversations 119045
Dow_Jones 119044
struggles 119043
consists 119042
Championships 119041
Bryan 119040
Riley 119039
depression 119038
elect 119037
Land 119036
IMF 119035
Athens 119034
Would 119033
waves 119032
Saudi 119031
Colts 119030
Parks 119029
import 119028
instruments 119027
foster 119026
utilities 119025
Holland 119024
L 119023
surplus 119022
ambulance 119021
occupied 119020
careers 119019
offseason 119018
exists 119017
servers 119016
gate 119015
Policy 119014
Danny 119013
titled 119012
trailed 119011
inappropriate 119010
hearts 119009
spill 119008
amended 119007
Fred 119006
warnings 119005
engines 119004
Coleman 119003
Associates 119002
desk 119001
Shiite 119000
nose 118999
compare 118998
Ann 118997
deputies 118996
freeze 118995
Chapter 118994
unfortunate 118993
sing 118992
batters 118991
deserves 118990
slot 118989
rice 118988
Products 118987
infection 118986
interception 118985
closest 118984
Jessica 118983
peers 118982
Magic 118981
compelling 118980
ambitious 118979
bullpen 118978
soul 118977
affects 118976
AM 118975
moon 118974
appeals 118973
combine 118972
sealed 118971
yard_touchdown 118970
lone 118969
humor 118968
Mac 118967
Sports_Writer 118966
symbol 118965
assumed 118964
scared 118963
U 118962
employs 118961
evil 118960
spreading 118959
motorcycle 118958
Planning 118957
Real 118956
excessive 118955
cautioned 118954
recycling 118953
mothers 118952
counted 118951
exclusively 118950
graduates 118949
Minneapolis 118948
curb 118947
superintendent 118946
Peace 118945
Access 118944
Ten 118943
convert 118942
stealing 118941
evacuated 118940
exceed 118939
tours 118938
tall 118937
threaten 118936
vessel 118935
shy 118934
Cuban 118933
Pro 118932
incumbent 118931
patterns 118930
SA 118929
valid 118928
reminded 118927
criminals 118926
heritage 118925
Lopez 118924
smooth 118923
interior 118922
burst 118921
ignore 118920
lowered 118919
flames 118918
View 118917
unemployment_rate 118916
broker 118915
lobby 118914
Abbas 118913
substantially 118912
approaching 118911
poised 118910
Within 118909
loud 118908
Wyoming 118907
enrollment 118906
radical 118905
Thousands 118904
Around 118903
Big_Ten 118902
drinks 118901
Jamie 118900
awesome 118899
technique 118898
Small 118897
private_equity 118896
Golf 118895
Twins 118894
dealer 118893
chicken 118892
acceptance 118891
appreciation 118890
figured 118889
globally 118888
arrangement 118887
drops 118886
Coalition 118885
mandatory 118884
Donald 118883
tables 118882
dies 118881
collision 118880
ingredients 118879
partnerships 118878
resign 118877
helpful 118876
Stone 118875
stakes 118874
interceptions 118873
stone 118872
Sir 118871
prayer 118870
sand 118869
Tiger 118868
Brady 118867
draws 118866
motor 118865
aviation 118864
solely 118863
guitar 118862
Summer 118861
overwhelming 118860
elementary 118859
Hezbollah 118858
rehabilitation 118857
Book 118856
HD 118855
Thus 118854
king 118853
devoted 118852
lands 118851
Bobby 118850
Christians 118849
northwest 118848
Moreover 118847
volatile 118846
tribal 118845
Alberta 118844
accusations 118843
crops 118842
MVP 118841
script 118840
catching 118839
wealthy 118838
effectiveness 118837
Student 118836
Broncos 118835
bidding 118834
wrestling 118833
al_Qaeda 118832
Spencer 118831
vendor 118830
implications 118829
tower 118828
recalls 118827
hybrid 118826
genuine 118825
fails 118824
scrutiny 118823
Medicine 118822
venues 118821
Manning 118820
Katrina 118819
rebuild 118818
right_hander 118817
hiding 118816
mental_health 118815
milestone 118814
Chiefs 118813
strict 118812
wondering 118811
referee 118810
replay 118809
e_mails 118808
civil_rights 118807
knife 118806
Royals 118805
Sanchez 118804
Security_Council 118803
silence 118802
cause_actual 118801
credibility 118800
oriented 118799
Democratic_Party 118798
hung 118797
removing 118796
traditionally 118795
intensity 118794
corporation 118793
bounced 118792
dated 118791
losing_streak 118790
nominee 118789
FIFA 118788
opposing 118787
Luke 118786
Asia_Pacific 118785
enthusiasm 118784
Pierce 118783
certification 118782
trash 118781
Khan 118780
Bruins 118779
Fish 118778
battles 118777
retiring 118776
Users 118775
realistic 118774
observers 118773
Sports_Network 118772
CA 118771
Standard 118770
Christ 118769
lengthy 118768
Madrid 118767
premiere 118766
isolated 118765
spotlight 118764
inspiration 118763
trigger 118762
staged 118761
frozen 118760
initiated 118759
Design 118758
iPad 118757
alternatives 118756
missile 118755
pitchers 118754
avoided 118753
dependent 118752
pose 118751
contests 118750
National_Guard 118749
Therefore 118748
Military 118747
searched 118746
gallons 118745
appreciated 118744
awaiting 118743
facilitate 118742
sentencing 118741
slump 118740
invitation 118739
Vatican 118738
shipments 118737
Knight 118736
occupation 118735
Darfur 118734
expression 118733
Somalia 118732
Barbara 118731
cope 118730
remainder 118729
reflecting 118728
distribute 118727
Musharraf 118726
strikeouts 118725
movements 118724
bonuses 118723
Posted 118722
confirmation 118721
notion 118720
aide 118719
fare 118718
medication 118717
laboratory 118716
rescued 118715
exchanges 118714
Billy 118713
joke 118712
screens 118711
Engineering 118710
jewelry 118709
Challenge 118708
dedication 118707
Superintendent 118706
pressing 118705
Convention 118704
cent 118703
nowhere 118702
engagement 118701
X 118700
crown 118699
recruit 118698
Neil 118697
Dec 118696
legendary 118695
businessman 118694
Race 118693
Seoul 118692
Room 118691
Fourth 118690
ancient 118689
alike 118688
postponed 118687
constitute 118686
courtroom 118685
endorsed 118684
supplied 118683
Eight 118682
testify 118681
youngsters 118680
releasing 118679
Huskies 118678
mystery 118677
Boys 118676
applying 118675
sustain 118674
Latin 118673
commentary 118672
Against 118671
Environmental 118670
timely 118669
default 118668
wire 118667
loyal 118666
engaging 118665
agrees 118664
eggs 118663
Future 118662
kidnapping 118661
totaling 118660
warrants 118659
condemned 118658
Reynolds 118657
counseling 118656
jumping 118655
reveals 118654
classified 118653
ally 118652
consolidation 118651
wickets 118650
conjunction 118649
indicating 118648
crowded 118647
gradually 118646
mere 118645
Reporting 118644
object 118643
Francis 118642
vegetables 118641
organize 118640
helicopters 118639
Budget 118638
International_Airport 118637
strip 118636
instructions 118635
politician 118634
spiritual 118633
urgent 118632
concentrate 118631
th 118630
chaos 118629
revolution 118628
substitute 118627
advances 118626
Ball 118625
finishes 118624
wells 118623
sweeping 118622
pressed 118621
adjustments 118620
contacts 118619
mound 118618
terminal 118617
bounce 118616
Linux 118615
Troy 118614
Environment 118613
turmoil 118612
Oct 118611
Brooklyn 118610
Operations 118609
Penn_State 118608
spell 118607
payroll 118606
Parents 118605
belt 118604
nurse 118603
Griffin 118602
Dublin 118601
Sunni 118600
History 118599
semifinal 118598
hospitalized 118597
jazz 118596
Founded 118595
credited 118594
downturn 118593
log 118592
outbreak 118591
frustrating 118590
voluntary 118589
motorists 118588
thick 118587
Thank 118586
Nationals 118585
desktop 118584
dust 118583
specialized 118582
task_force 118581
pursuit 118580
Colombia 118579
experiencing 118578
Celtics 118577
stays 118576
forgotten 118575
appealing 118574
Light 118573
favored 118572
briefing 118571
Crawford 118570
pit 118569
Arena 118568
commodity 118567
Almost 118566
Kate 118565
iron 118564
functionality 118563
Swedish 118562
identifying 118561
Yeah 118560
overs 118559
farms 118558
stepping 118557
deserved 118556
bearing 118555
acknowledge 118554
hardest 118553
environments 118552
Chad 118551
compiled 118550
visual 118549
strengthening 118548
explosives 118547
reluctant 118546
craft 118545
magic 118544
Derby 118543
gallery 118542
tasks 118541
inaugural 118540
generous 118539
layoffs 118538
landmark 118537
zones 118536
successor 118535
influential 118534
dividends 118533
hub 118532
violate 118531
voices 118530
Whatever 118529
chat 118528
Stuart 118527
3_pointers 118526
vacant 118525
legislature 118524
packaging 118523
sometime 118522
Main_Street 118521
strain 118520
governance 118519
pure 118518
seemingly 118517
Bible 118516
transparency 118515
legally 118514
optimism 118513
Resources 118512
Feb 118511
logo 118510
Monroe 118509
Player 118508
Major_League 118507
excellence 118506
advisers 118505
refuse 118504
Stock 118503
Jimmy 118502
Rich 118501
Honda 118500
It'sa 118499
performers 118498
Walsh 118497
speeds 118496
permitted 118495
Nancy 118494
entries 118493
lasting 118492
foreclosure 118491
bird 118490
chart 118489
Burns 118488
aides 118487
Nation 118486
incredibly 118485
seal 118484
economics 118483
beliefs 118482
consultation 118481
tragic 118480
Qatar 118479
adventure 118478
reaches 118477
collective 118476
controlling 118475
reject 118474
governing 118473
evident 118472
hungry 118471
gray 118470
stored 118469
softball 118468
clerk 118467
Pope 118466
advisor 118465
fame 118464
array 118463
barrier 118462
salt 118461
emphasized 118460
steals 118459
Drew 118458
actual_results 118457
violating 118456
Care 118455
Magazine 118454
grandmother 118453
detainees 118452
advocacy 118451
spectrum 118450
reiterated 118449
Heritage 118448
explaining 118447
Greater 118446
conservatives 118445
northeast 118444
casualties 118443
sorts 118442
Chile 118441
sends 118440
mall 118439
plunged 118438
matchup 118437
Commonwealth 118436
indicted 118435
tire 118434
Training 118433
automaker 118432
locker_room 118431
commenting 118430
perception 118429
Kuwait 118428
differently 118427
dirt 118426
leak 118425
loving 118424
Eagle 118423
embassy 118422
cattle 118421
crackdown 118420
shipped 118419
ACC 118418
confusion 118417
Goldman_Sachs 118416
Holdings 118415
insurers 118414
committees 118413
scientist 118412
Car 118411
Corp 118410
branded 118409
adjust 118408
grid 118407
accelerate 118406
Palmer 118405
logged 118404
embrace 118403
bombings 118402
designers 118401
Hart 118400
Tax 118399
pastor 118398
shutout 118397
kicking 118396
absolute 118395
bone 118394
Working 118393
upside 118392
Industrial 118391
printed 118390
subsidies 118389
relation 118388
reliability 118387
eliminating 118386
Nine 118385
#.##pm 118384
painted 118383
mechanism 118382
sizes 118381
define 118380
Syrian 118379
Walter 118378
outing 118377
muscle 118376
educate 118375
boxing 118374
consolidated 118373
Property 118372
intelligent 118371
betting 118370
United_Kingdom 118369
legend 118368
outlined 118367
township 118366
shuttle 118365
borrowing 118364
Celtic 118363
barriers 118362
PTI 118361
theaters 118360
Jacksonville 118359
Shaw 118358
Markets 118357
Down 118356
battled 118355
snap 118354
schemes 118353
Nov 118352
prompting 118351
entity 118350
breakthrough 118349
triumph 118348
ton 118347
clearing 118346
Quinn 118345
minus 118344
printing 118343
entities 118342
trails 118341
Twenty 118340
Jenkins 118339
refugees 118338
positioned 118337
excuse 118336
missions 118335
Knicks 118334
apiece 118333
celebrities 118332
Lt. 118331
midfield 118330
Page 118329
chairs 118328
Bolton 118327
rebuilding 118326
Premier 118325
sidelines 118324
Hornets 118323
Hunt 118322
tension 118321
Katie 118320
Reading 118319
electoral 118318
District_Attorney 118317
invite 118316
disputed 118315
Israelis 118314
portable 118313
President_George_W. 118312
Sure 118311
Remember 118310
tuition 118309
Syracuse 118308
intentions 118307
app 118306
launches 118305
Growth 118304
Titans 118303
Income 118302
refusing 118301
Hernandez 118300
graduation 118299
Owens 118298
Studies 118297
raced 118296
posed 118295
renewable_energy 118294
Redskins 118293
Penn 118292
= 118291
ought 118290
Curtis 118289
publish 118288
securing 118287
Coast_Guard 118286
sole 118285
Organization 118284
couples 118283
Jeremy 118282
Jazz 118281
clashes 118280
separated 118279
Cougars 118278
breath 118277
panic 118276
elaborate 118275
organizing 118274
Study 118273
mature 118272
directions 118271
meantime 118270
Wild 118269
denies 118268
fighter 118267
motivated 118266
plug 118265
weighed 118264
Was 118263
viable 118262
harsh 118261
bitter 118260
reconstruction 118259
Tourism 118258
assurance 118257
Continued 118256
Cross 118255
gender 118254
spam 118253
Webb 118252
Jane 118251
dose 118250
supportive 118249
Xbox 118248
introducing 118247
outfit 118246
hat 118245
slid 118244
sacks 118243
tanks 118242
lottery 118241
tender 118240
instant 118239
stupid 118238
interface 118237
Knights 118236
goalkeeper 118235
enemies 118234
arranged 118233
Saddam_Hussein 118232
diplomats 118231
deploy 118230
youths 118229
iPod 118228
Fans 118227
subsequently 118226
contention 118225
median 118224
jurisdiction 118223
burglary 118222
DJ 118221
slower 118220
advantages 118219
wheat 118218
worthy 118217
shame 118216
conflicts 118215
quietly 118214
Favre 118213
benefited 118212
Space 118211
diluted_share 118210
complain 118209
inevitable 118208
Sky 118207
Customers 118206
heating 118205
desert 118204
Cohen 118203
Editor 118202
Patterson 118201
Warner 118200
mountains 118199
internationally 118198
mosque 118197
pressures 118196
eBay 118195
AIG 118194
ballots 118193
Commercial 118192
occasionally 118191
besides 118190
Sharks 118189
turnaround 118188
concessions 118187
remind 118186
hip 118185
entertaining 118184
willingness 118183
episodes 118182
courage 118181
shifted 118180
foreigners 118179
Due 118178
counterparts 118177
sentences 118176
merchandise 118175
perceived 118174
McCarthy 118173
satisfaction 118172
fulfill 118171
defenders 118170
Tampa 118169
silent 118168
GAAP 118167
tourist 118166
treaty 118165
holdings 118164
adjacent 118163
North_Dakota 118162
Band 118161
applicable 118160
Emily 118159
bowling 118158
Nigerian 118157
wicket 118156
objects 118155
Says 118154
applicants 118153
Yemen 118152
freed 118151
Android 118150
gonna 118149
layup 118148
Lynn 118147
bridges 118146
3G 118145
endorsement 118144
examination 118143
Wimbledon 118142
educated 118141
tensions 118140
Anne 118139
explosive 118138
exceeded 118137
imported 118136
fantasy 118135
Putin 118134
suits 118133
recognizes 118132
m 118131
minimal 118130
Full 118129
medal 118128
Springfield 118127
reads 118126
locals 118125
trailing 118124
prayers 118123
v 118122
suggestion 118121
workplace 118120
Play 118119
Embassy 118118
Between 118117
Target 118116
simultaneously 118115
Consumers 118114
Bar 118113
Rachel 118112
Change 118111
universal 118110
Burke 118109
Milan 118108
lifting 118107
financially 118106
Islamabad 118105
recruitment 118104
quest 118103
Holmes 118102
grave 118101
lobbying 118100
Edmonton 118099
Lynch 118098
argues 118097
bold 118096
brutal 118095
reply 118094
renowned 118093
reconciliation 118092
Jeffrey 118091
Lucas 118090
sleeping 118089
Richards 118088
computing 118087
sooner 118086
switched 118085
laptop 118084
surveyed 118083
reservations 118082
woes 118081
swim 118080
marking 118079
breathing 118078
Porter 118077
blind 118076
immune 118075
founding 118074
opted 118073
unrest 118072
##ers 118071
curriculum 118070
shifts 118069
Workers 118068
Middle_School 118067
Operating 118066
troubles 118065
midway_through 118064
Myers 118063
Bahrain 118062
distributor 118061
TD 118060
damaging 118059
Samsung 118058
coup 118057
representation 118056
Snow 118055
notify 118054
manufacture 118053
random 118052
institutional 118051
transported 118050
protein 118049
mounted 118048
bottles 118047
Visit 118046
presenting 118045
pleasure 118044
Search 118043
surveys 118042
accomplish 118041
Nepal 118040
Easter 118039
declaration 118038
dumped 118037
Winter 118036
weigh 118035
evolution 118034
accusing 118033
upgraded 118032
teeth 118031
lately 118030
loses 118029
browser 118028
politically 118027
researcher 118026
Carl 118025
leagues 118024
subscribe 118023
Capt. 118022
stabbed 118021
OPEC 118020
Jean 118019
Experts 118018
coupled 118017
Conservative 118016
accessories 118015
accountability 118014
Marion 118013
setback 118012
heels 118011
Share 118010
apartments 118009
factories 118008
Mission 118007
outcomes 118006
stalled 118005
ANI 118004
Nathan 118003
Hurricane_Katrina 118002
alarm 118001
jumper 118000
centered 117999
integrate 117998
advertisers 117997
apologized 117996
Jake 117995
GE 117994
unfortunately 117993
Morrison 117992
Amazon 117991
Owen 117990
chocolate 117989
shootout 117988
tale 117987
finalists 117986
marine 117985
flooded 117984
ethanol 117983
tunnel 117982
charts 117981
accountable 117980
conclude 117979
cook 117978
conceded 117977
stomach 117976
enjoys 117975
ugly 117974
IPO 117973
Add 117972
wrist 117971
clinics 117970
tally 117969
arrives 117968
Albany 117967
volleyball 117966
drunk 117965
Prices 117964
parole 117963
spare 117962
Elementary_School 117961
Romney 117960
goalie 117959
Boulevard 117958
Flyers 117957
inability 117956
Julie 117955
concerts 117954
Libyan 117953
liabilities 117952
Glenn 117951
radiation 117950
risky 117949
Tracy 117948
worn 117947
inspectors 117946
tag 117945
enrolled 117944
convenient 117943
amongst 117942
exploring 117941
NSW 117940
Hayes 117939
dirty 117938
unnecessary 117937
guided 117936
volatility 117935
Norway 117934
pipe 117933
unemployed 117932
ST 117931
Myanmar 117930
Private 117929
SUV 117928
decides 117927
Hey 117926
inform 117925
Travel 117924
Come 117923
Ramirez 117922
disputes 117921
institute 117920
veto 117919
expired 117918
grand_jury 117917
issuing 117916
Records 117915
yields 117914
fundraiser 117913
specialists 117912
competed 117911
implied 117910
magnitude 117909
comprised 117908
Leader 117907
keeper 117906
P. 117905
Cal 117904
aggressively 117903
devastated 117902
Serbia 117901
5th 117900
chasing 117899
Smart 117898
spends 117897
Could 117896
graphics 117895
Southeast 117894
cats 117893
Aug 117892
Polish 117891
ridiculous 117890
v. 117889
affiliates 117888
sellers 117887
telecom 117886
sponsorship 117885
supervisor 117884
naturally 117883
Liberal 117882
Going 117881
calculated 117880
publicity 117879
slammed 117878
retained 117877
teenage 117876
#-###-###-#### 117875
regarded 117874
justify 117873
radar 117872
mounting 117871
Furthermore 117870
bathroom 117869
liable 117868
Soccer 117867
climbing 117866
substance 117865
Eddie 117864
pets 117863
oversee 117862
Newton 117861
trademarks 117860
District_Judge 117859
populations 117858
boundaries 117857
gunmen 117856
pot 117855
dubbed 117854
Raymond 117853
enforce 117852
beneath 117851
ports 117850
debts 117849
advancing 117848
adverse 117847
Arthur 117846
trusted 117845
caps 117844
flown 117843
Buy 117842
kidnapped 117841
Purdue 117840
declare 117839
punch 117838
pink 117837
tossed 117836
presidential_candidate 117835
affiliated 117834
harvest 117833
lucrative 117832
soaring 117831
Bristol 117830
competitor 117829
Kabul 117828
jointly 117827
possibilities 117826
Centers 117825
Rochester 117824
commonly 117823
Leeds 117822
destinations 117821
stating 117820
pregnancy 117819
Davies 117818
Think 117817
experiment 117816
Record 117815
T. 117814
hostile 117813
Gulf_Coast 117812
expectation 117811
Coming 117810
Cheney 117809
indoor 117808
olds 117807
IRS 117806
spaces 117805
Researchers 117804
Homeland_Security 117803
firmly 117802
passionate 117801
Rockies 117800
taxpayer 117799
collections 117798
W 117797
sacrifice 117796
basement 117795
Xinhua 117794
vessels 117793
Sr. 117792
Dixon 117791
Shannon 117790
Private_Securities_Litigation_Reform 117789
Appeals 117788
horror 117787
drag 117786
visibility 117785
react 117784
cooperate 117783
restoration 117782
raw 117781
Harvey 117780
grows 117779
elbow 117778
entrepreneurs 117777
describing 117776
conferences 117775
aiming 117774
Starting 117773
Wall_Street_Journal 117772
Oxford 117771
presidents 117770
belong 117769
Greene 117768
flags 117767
Carol 117766
semi 117765
prohibited 117764
motivation 117763
continent 117762
assessed 117761
Tommy 117760
toy 117759
continuous 117758
steadily 117757
Triple 117756
reserved 117755
tops 117754
Restaurant 117753
efficiently 117752
bureau 117751
southwest 117750
EUR 117749
en_route 117748
weekends 117747
Travis 117746
elimination 117745
finalized 117744
RBI_single 117743
forthcoming 117742
lanes 117741
dragged 117740
refer 117739
emotions 117738
Dale 117737
ceiling 117736
midst 117735
beats 117734
root 117733
degree_murder 117732
Senators 117731
Source 117730
IANS 117729
memorable 117728
Jose 117727
determining 117726
persuade 117725
awful 117724
seeds 117723
logistics 117722
languages 117721
Together 117720
affiliate 117719
occurs 117718
connecting 117717
Doctors 117716
labels 117715
grandfather 117714
spark 117713
cell_phones 117712
Earnings 117711
ripped 117710
sized 117709
Too 117708
marathon 117707
SC 117706
planted 117705
prospective 117704
farming 117703
tier 117702
Brussels 117701
miners 117700
farmer 117699
proportion 117698
deer 117697
PGA_Tour 117696
detectives 117695
acquiring 117694
cousin 117693
Robertson 117692
cry 117691
Meyer 117690
preparations 117689
upgrades 117688
hill 117687
Schwarzenegger 117686
warehouse 117685
Film 117684
transform 117683
##/##/#### 117682
Transport 117681
Control 117680
warn 117679
practicing 117678
Order 117677
Healthcare 117676
Recently 117675
campaigning 117674
limiting 117673
teaches 117672
Retail 117671
Cisco 117670
stranded 117669
b 117668
voter 117667
workshops 117666
Register 117665
transformation 117664
displaced 117663
maximize 117662
Cricket 117661
terrific 117660
significance 117659
Woman 117658
outsourcing 117657
AND 117656
apology 117655
aired 117654
CHICAGO 117653
exploded 117652
fierce 117651
contrary 117650
Brett 117649
unacceptable 117648
Gallery 117647
payable 117646
Gilbert 117645
progressive 117644
Member 117643
anxiety 117642
scholarships 117641
â_€ 117640
privilege 117639
catcher 117638
constructed 117637
Ambassador 117636
Tiger_Woods 117635
maps 117634
Staff_Writer 117633
Vincent 117632
Perez 117631
friendship 117630
failures 117629
sounded 117628
insist 117627
applies 117626
##.### 117625
Cambridge 117624
icon 117623
Tonight 117622
mobile_phones 117621
phenomenon 117620
Durham 117619
succeeded 117618
colleague 117617
Rhode_Island 117616
vocal 117615
Burton 117614
Chuck 117613
Making 117612
Credit 117611
hook 117610
resumed 117609
« 117608
Belgium 117607
Amanda 117606
atop 117605
relay 117604
Uganda 117603
Theater 117602
execute 117601
boosting 117600
greeted 117599
relate 117598
Partnership 117597
corners 117596
G. 117595
fireworks 117594
grain 117593
diagnosis 117592
scary 117591
southeast 117590
Browns 117589
Brisbane 117588
Performance 117587
Chief_Executive 117586
Motorola 117585
scoreless 117584
toxic 117583
missiles 117582
shorter 117581
H. 117580
mutual 117579
UN_Security 117578
forming 117577
Force 117576
Getting 117575
Salem 117574
Morgan_Stanley 117573
birdies 117572
varsity 117571
bread 117570
blogs 117569
partially 117568
cement 117567
decisive 117566
Suite 117565
negotiated 117564
feeding 117563
Days 117562
toughest 117561
consent 117560
undefeated 117559
orange 117558
Current 117557
Glasgow 117556
Johnston 117555
halted 117554
paintings 117553
Gaza_Strip 117552
automated 117551
AL 117550
publications 117549
adjustment 117548
Talk 117547
extends 117546
Max 117545
conscious 117544
poorly 117543
crying 117542
genetic 117541
sideline 117540
cleanup 117539
specializes 117538
Stanley 117537
lows 117536
seminar 117535
instrument 117534
dangers 117533
columnist 117532
celebrations 117531
floods 117530
seasonal 117529
grounded 117528
Andrews 117527
consultants 117526
Sanders 117525
Villa 117524
journalism 117523
petroleum 117522
shifting 117521
soared 117520
Cairo 117519
academy 117518
owed 117517
Storm 117516
NFC 117515
withdrew 117514
Snyder 117513
borrowers 117512
interaction 117511
memo 117510
flowing 117509
confused 117508
death_toll 117507
dominate 117506
sank 117505
loyalty 117504
diesel 117503
encourages 117502
courthouse 117501
followers 117500
Grace 117499
Zone 117498
Community_College 117497
rallies 117496
robbed 117495
notably 117494
magazines 117493
embedded 117492
apologize 117491
settlements 117490
sidelined 117489
NJ 117488
Gregory 117487
Denmark 117486
indicators 117485
lender 117484
liquid 117483
nutrition 117482
Dunn 117481
Devils 117480
talents 117479
fits 117478
preview 117477
thanked 117476
turnout 117475
ladies 117474
outlets 117473
colorful 117472
Scientists 117471
publishers 117470
employ 117469
premiums 117468
competitions 117467
Taking 117466
twenty 117465
relieved 117464
suburb 117463
Ridge 117462
birdie 117461
keys 117460
demonstrates 117459
heroes 117458
Campaign 117457
superb 117456
gauge 117455
equities 117454
automakers 117453
courtesy 117452
Girls 117451
murdered 117450
disability 117449
halfway 117448
Steel 117447
anxious 117446
strategist 117445
strengths 117444
Trojans 117443
minded 117442
mild 117441
humanity 117440
manufactured 117439
centuries 117438
supporter 117437
Riverside 117436
handing 117435
pray 117434
opt 117433
screaming 117432
Opposition 117431
cheese 117430
undertake 117429
combines 117428
shoulders 117427
Temple 117426
Elliott 117425
severely 117424
confidential 117423
streaming 117422
Logan 117421
Marcus 117420
stakeholders 117419
recreation 117418
notable 117417
peer 117416
golden 117415
bite 117414
speeding 117413
co_founder 117412
Indonesian 117411
bears 117410
.## 117409
deck 117408
Help 117407
pupils 117406
laying 117405
premises 117404
detection 117403
Pac 117402
searches 117401
caring 117400
Child 117399
profession 117398
governors 117397
hurting 117396
inquiries 117395
contender 117394
Fortune 117393
relaxed 117392
literature 117391
Norman 117390
charities 117389
discounts 117388
historically 117387
Heart 117386
Wolves 117385
travels 117384
bass 117383
throws 117382
Million 117381
Lloyd 117380
non_GAAP 117379
stunned 117378
minimize 117377
detect 117376
patience 117375
Nevertheless 117374
regain 117373
Leading 117372
Final 117371
Spartans 117370
Northern_Ireland 117369
detected 117368
metals 117367
photographer 117366
floating 117365
showdown 117364
chemistry 117363
questionable 117362
Mariners 117361
Mall 117360
Give 117359
openly 117358
holder 117357
Professional 117356
Bill_Clinton 117355
Never 117354
impacts 117353
pin 117352
indicator 117351
watchdog 117350
Vick 117349
scattered 117348
rider 117347
I'ma 117346
obesity 117345
evacuation 117344
wherever 117343
Registration 117342
wrap 117341
reduces 117340
commissioned 117339
albums 117338
Austria 117337
sticking 117336
Run 117335
stretched 117334
cruise 117333
tee 117332
associates 117331
torn 117330
ace 117329
Maria 117328
rocks 117327
styles 117326
illegal_immigrants 117325
beds 117324
mines 117323
importantly 117322
Left 117321
trademark 117320
Abu_Dhabi 117319
Clemson 117318
blowing 117317
hostage 117316
sewer 117315
proving 117314
develops 117313
diluted 117312
bolster 117311
Link 117310
patents 117309
Trading 117308
Jamaica 117307
beneficial 117306
credible 117305
complaining 117304
cooling 117303
nominees 117302
Season 117301
transparent 117300
erupted 117299
terrorist_attacks 117298
Reagan 117297
receivers 117296
Strong 117295
undergo 117294
GPS 117293
Ted 117292
Human_Rights 117291
nominations 117290
FCC 117289
attracting 117288
Robin 117287
Everton 117286
smell 117285
Production 117284
Diamond 117283
considerably 117282
contracted 117281
psychological 117280
desperately 117279
Discovery 117278
fingers 117277
remembers 117276
aftermath 117275
t 117274
Emergency 117273
Nadal 117272
Charleston 117271
origin 117270
Portsmouth 117269
oversees 117268
insurgency 117267
podium 117266
analyze 117265
monitors 117264
amendments 117263
sum 117262
mainland 117261
hitters 117260
ousted 117259
mill 117258
citizenship 117257
bloody 117256
stint 117255
ie 117254
Principal 117253
Case 117252
Auto 117251
Wall 117250
Auckland 117249
knocking 117248
tenants 117247
Has 117246
supervision 117245
Said 117244
Edinburgh 117243
disagree 117242
regret 117241
Better 117240
pact 117239
brokerage 117238
starring 117237
allocated 117236
Dick 117235
celebrates 117234
consortium 117233
abilities 117232
Sign 117231
reminder 117230
supply_chain 117229
inclusion 117228
brown 117227
Inside 117226
haul 117225
Lauren 117224
Fall 117223
vs 117222
artistic 117221
Agreement 117220
eventual 117219
Georgetown 117218
flows 117217
closes 117216
structural 117215
locate 117214
General_Assembly 117213
unbelievable 117212
thereby 117211
assure 117210
satisfy 117209
Leonard 117208
presentations 117207
cancel 117206
flavor 117205
fastest_growing 117204
ski 117203
Dolphins 117202
surprisingly 117201
tipped 117200
Pete 117199
strokes 117198
Miles 117197
Oliver 117196
Stephanie 117195
unhappy 117194
communist 117193
Philip 117192
denying 117191
influenced 117190
South_Dakota 117189
Marlins 117188
attendees 117187
shootings 117186
beloved 117185
Plans 117184
shocking 117183
double_digit 117182
recipient 117181
Goldman 117180
recipients 117179
predecessor 117178
warns 117177
crashes 117176
plagued 117175
Wellington 117174
recipe 117173
plain 117172
whereas 117171
routinely 117170
Daily_News 117169
civic 117168
appointments 117167
--- 117166
Newman 117165
quote 117164
runway 117163
offenders 117162
investigator 117161
assignment 117160
please_contact 117159
inspections 117158
recruited 117157
Father 117156
labeled 117155
PR 117154
flagship 117153
buzz 117152
Dow_Jones_industrial 117151
Defence 117150
Mid 117149
Captain 117148
enters 117147
contenders 117146
Phase 117145
garbage 117144
borrow 117143
commanders 117142
Ocean 117141
builds 117140
Reserve 117139
Comcast 117138
rides 117137
biological 117136
BMW 117135
emotion 117134
Hilton 117133
commerce 117132
weighing 117131
abandon 117130
Yale 117129
Daniels 117128
dining 117127
multimedia 117126
Lowe 117125
knee_injury 117124
occasional 117123
casinos 117122
eased 117121
phrase 117120
· 117119
demonstrators 117118
Geneva 117117
islands 117116
Death 117115
Jacob 117114
skeptical 117113
semester 117112
rhythm 117111
Shell 117110
Gardner 117109
expire 117108
General_Motors 117107
accessed 117106
undermine 117105
mate 117104
Wi_Fi 117103
avoiding 117102
Recreation 117101
Less 117100
weakened 117099
boasts 117098
contents 117097
pickup 117096
pockets 117095
Pyongyang 117094
renovation 117093
grip 117092
Sprint 117091
UBS 117090
certificate 117089
Philippine 117088
combining 117087
Citizens 117086
Recent 117085
shaped 117084
promotional 117083
Virginia_Tech 117082
fold 117081
visa 117080
reliance 117079
scare 117078
refusal 117077
broadcasting 117076
united 117075
joked 117074
switching 117073
Financial_Services 117072
freshmen 117071
fortune 117070
Bradford 117069
Matthews 117068
visitor 117067
Store 117066
poured 117065
subscriber 117064
ounces 117063
Ducks 117062
touring 117061
tear 117060
bout 117059
swine_flu 117058
Net_income 117057
workout 117056
pants 117055
convenience 117054
schedules 117053
Dance 117052
glory 117051
F. 117050
trick 117049
panels 117048
laughing 117047
seller 117046
evaluated 117045
beaches 117044
chains 117043
Late 117042
predictions 117041
sore 117040
Demand 117039
Beyond 117038
steep 117037
jersey 117036
separation 117035
mad 117034
clip 117033
Chargers 117032
c 117031
AAA 117030
Louis 117029
diving 117028
Elementary 117027
instruction 117026
AOL 117025
amateur 117024
anchor 117023
placement 117022
contend 117021
bipartisan 117020
wasted 117019
utilize 117018
limitations 117017
National_Weather_Service 117016
donor 117015
likelihood 117014
Welsh 117013
Clearly 117012
Main 117011
confrontation 117010
Gen. 117009
wondered 117008
oil_spill 117007
Champion 117006
cure 117005
Moon 117004
appeals_court 117003
upbeat 117002
inner 117001
pope 117000
Ask 116999
horrible 116998
aluminum 116997
outreach 116996
ICC 116995
countless 116994
distinct 116993
skilled 116992
gold_medal 116991
raids 116990
needing 116989
Grade 116988
pence 116987
directing 116986
Bangalore 116985
ramp 116984
Wagner 116983
info 116982
separately 116981
sacked 116980
casual 116979
quarterfinals 116978
Nicole 116977
Learn 116976
diplomat 116975
Moody 116974
overturned 116973
partial 116972
Kosovo 116971
Fitch 116970
advise 116969
chef 116968
pile 116967
Set 116966
editors 116965
concentration 116964
Firefighters 116963
Fla. 116962
rewards 116961
HR 116960
Northwestern 116959
technological 116958
console 116957
withdrawn 116956
worship 116955
assuming 116954
Kenny 116953
corrupt 116952
Grand_Prix 116951
cheer 116950
Intelligence 116949
catalog 116948
habits 116947
improves 116946
processor 116945
Low 116944
Eastern_Conference 116943
sheet 116942
boycott 116941
shadow 116940
homicide 116939
Critics 116938
inspire 116937
musician 116936
Freeman 116935
Dayton 116934
Basketball 116933
interference 116932
Soviet 116931
disposal 116930
rivalry 116929
embarrassing 116928
brokers 116927
Apparently 116926
AFC 116925
Barrett 116924
banner 116923
Had 116922
Sciences 116921
MTV 116920
complications 116919
intensive 116918
Derek 116917
convincing 116916
borough 116915
6th 116914
7th 116913
Ravens 116912
disabled_list 116911
smiling 116910
trauma 116909
kickoff 116908
lawmaker 116907
undergoing 116906
Castro 116905
transformed 116904
Merrill_Lynch 116903
evaluating 116902
lacked 116901
Moss 116900
Save 116899
prescription 116898
trustees 116897
regulator 116896
abused 116895
committing 116894
O'Connor 116893
passport 116892
monetary 116891
ECB 116890
Arlington 116889
pursuant 116888
balance_sheet 116887
fragile 116886
Suns 116885
Stern 116884
Short 116883
header 116882
Hampton 116881
apps 116880
Ferrari 116879
Brewers 116878
instances 116877
sworn 116876
chronic 116875
Wizards 116874
twist 116873
medicines 116872
Cancer 116871
inventories 116870
blend 116869
anticipates 116868
Affairs 116867
Albert 116866
Throughout 116865
poker 116864
Anna 116863
Carr 116862
machinery 116861
revenge 116860
Busch 116859
shortages 116858
Padres 116857
bacteria 116856
mud 116855
misdemeanor 116854
Arnold 116853
fax 116852
bin_Laden 116851
Davidson 116850
intact 116849
weird 116848
swap 116847
strained 116846
Glen 116845
creditors 116844
insurer 116843
dig 116842
Shore 116841
hip_hop 116840
posters 116839
revive 116838
summary 116837
rhetoric 116836
recommends 116835
Analysis 116834
associations 116833
exam 116832
Soon 116831
zoning 116830
vary 116829
Story 116828
architect 116827
Australians 116826
Halloween 116825
VP 116824
medications 116823
Capitol_Hill 116822
defeating 116821
flash 116820
aggregate 116819
naked 116818
correspondent 116817
policemen 116816
uncle 116815
Bangkok 116814
paperwork 116813
patch 116812
turf 116811
Bernanke 116810
British_Columbia 116809
counterpart 116808
Years 116807
dip 116806
Mercantile_Exchange 116805
Human 116804
tent 116803
instantly 116802
Political 116801
PA 116800
cigarettes 116799
medals 116798
shortstop 116797
buys 116796
Mugabe 116795
Anaheim 116794
Penguins 116793
Johnny 116792
trader 116791
coordinated 116790
Master 116789
Marc 116788
prepares 116787
finest 116786
announcements 116785
wounds 116784
retreat 116783
disorder 116782
Excluding 116781
regulated 116780
outright 116779
costing 116778
settings 116777
reversed 116776
Win 116775
classrooms 116774
Certainly 116773
incorporated 116772
strengthened 116771
quotes 116770
SAP 116769
shooter 116768
bullish 116767
plaintiffs 116766
downs 116765
themes 116764
Non 116763
Astros 116762
distributors 116761
semi_final 116760
Colin 116759
Teachers 116758
revise 116757
precisely 116756
unidentified 116755
exempt 116754
Premiership 116753
gunman 116752
Boyd 116751
Fresno 116750
immigrant 116749
municipalities 116748
tissue 116747
sustainability 116746
rolls 116745
Cavaliers 116744
Executive_Director 116743
characteristics 116742
Pistons 116741
EBITDA 116740
belonging 116739
Simmons 116738
refinery 116737
enthusiastic 116736
filming 116735
AMD 116734
capitalize 116733
quarterbacks 116732
bay 116731
sake 116730
correctly 116729
lacking 116728
precise 116727
linking 116726
Bills 116725
practiced 116724
creativity 116723
frequency 116722
lovely 116721
Margaret 116720
iconic 116719
recruits 116718
Stop 116717
woods 116716
rivers 116715
##-#-# 116714
General_Manager 116713
unlimited 116712
libraries 116711
Gay 116710
gates 116709
Providence 116708
accomplishments 116707
Hartford 116706
dipped 116705
lyrics 116704
connectivity 116703
Schmidt 116702
Garrett 116701
skipper 116700
steam 116699
divide 116698
x 116697
stem 116696
Jacobs 116695
dishes 116694
Baylor 116693
repay 116692
Off 116691
Lower 116690
barred 116689
animated 116688
layer 116687
belongs 116686
Sue 116685
enacted 116684
NL 116683
Shane 116682
battered 116681
teamed 116680
confronted 116679
Kenneth 116678
genes 116677
televised 116676
relax 116675
Carson 116674
Jesse 116673
hailed 116672
casting 116671
hospitality 116670
vast_majority 116669
administered 116668
Pitt 116667
rounded 116666
it'sa 116665
fiber 116664
folk 116663
elevated 116662
successive 116661
analyzed 116660
credit_cards 116659
Mt 116658
lesser 116657
Augusta 116656
Chen 116655
Kurdish 116654
Doyle 116653
thorough 116652
poster 116651
Finland 116650
Hillary_Clinton 116649
studios 116648
performer 116647
Karzai 116646
Plaza 116645
Pa. 116644
Traffic 116643
pensions 116642
Punjab 116641
assembled 116640
American_Idol 116639
ordering 116638
bother 116637
Long_Island 116636
semiconductor 116635
consistency 116634
Already 116633
Al_Qaeda 116632
Someone 116631
Tucker 116630
cake 116629
worrying 116628
Nicholas 116627
Inter 116626
Rutgers 116625
amounted 116624
Sheffield 116623
Conservatives 116622
helmet 116621
marry 116620
obtaining 116619
uranium 116618
dental 116617
homered 116616
tracked 116615
wheels 116614
Playing 116613
altogether 116612
exercises 116611
Prevention 116610
Princeton 116609
favors 116608
quicker 116607
Boy 116606
smashed 116605
fixing 116604
Hockey 116603
dairy 116602
Branch 116601
afterward 116600
scorer 116599
photography 116598
instructor 116597
yelling 116596
Hurricanes 116595
complement 116594
affidavit 116593
Downtown 116592
disturbing 116591
Marie 116590
murders 116589
Americas 116588
compact 116587
examining 116586
threatens 116585
Bowl 116584
Chief_Financial 116583
Advanced 116582
reflection 116581
touching 116580
shelters 116579
proves 116578
pizza 116577
prisoner 116576
diamond 116575
½ 116574
Shawn 116573
instrumental 116572
copyright 116571
lakh 116570
uncomfortable 116569
anonymous 116568
crushed 116567
Ahmadinejad 116566
brave 116565
obstacles 116564
juvenile 116563
contingent 116562
Learning 116561
merit 116560
##m 116559
Foreign_Ministry 116558
voiced 116557
clicking 116556
economic_downturn 116555
piano 116554
stripped 116553
adapt 116552
enhancing 116551
romantic 116550
interact 116549
Orioles 116548
Phelps 116547
blacks 116546
Forward_looking 116545
webcast 116544
speeches 116543
billing 116542
Peru 116541
Peters 116540
ear 116539
Joel 116538
composed 116537
Melissa 116536
convictions 116535
cops 116534
Bay_Area 116533
PowerRating 116532
d 116531
Unless 116530
Megan 116529
Mars 116528
interpretation 116527
Very 116526
Mount 116525
Born 116524
sang 116523
listened 116522
Rays 116521
inmate 116520
credentials 116519
Sport 116518
Noble 116517
8th 116516
domain 116515
imaging 116514
disc 116513
poses 116512
Jobs 116511
NCAA_tournament 116510
loved_ones 116509
Chester 116508
healing 116507
iTunes 116506
NHS 116505
steroids 116504
appoint 116503
permanently 116502
agreeing 116501
wide_receiver 116500
outscored 116499
cinema 116498
Wireless 116497
photograph 116496
heated 116495
documentation 116494
leaked 116493
processed 116492
signatures 116491
Heather 116490
differ 116489
parallel 116488
Half 116487
wash 116486
Superior_Court 116485
PRNewswire_FirstCall 116484
athletics 116483
editing 116482
incorporate 116481
justified 116480
racist 116479
Clay 116478
observations 116477
Immigration 116476
migration 116475
rehab 116474
Real_Madrid 116473
levy 116472
Joyce 116471
stabilize 116470
mechanical 116469
QB 116468
precious 116467
lowering 116466
valuation 116465
convoy 116464
prosperity 116463
lovers 116462
Managing_Director 116461
booth 116460
Speaker 116459
tumbled 116458
forwards 116457
customized 116456
Guide 116455
highways 116454
dignity 116453
Vice 116452
report_abuse_button 116451
tends 116450
universe 116449
Initiative 116448
infant 116447
mates 116446
fishermen 116445
lacks 116444
Brent 116443
Romania 116442
Mohammed 116441
royal 116440
accelerated 116439
wary 116438
Walk 116437
Johannesburg 116436
transfers 116435
impacted 116434
spite 116433
Update 116432
conclusions 116431
Casino 116430
contaminated 116429
Living 116428
Tell 116427
bosses 116426
promotions 116425
Windsor 116424
resist 116423
undertaken 116422
PCs 116421
jokes 116420
Holiday 116419
Islanders 116418
embraced 116417
characterized 116416
Tucson 116415
dismiss 116414
Gators 116413
batteries 116412
suited 116411
file_photo 116410
Merck 116409
fitting 116408
lend 116407
Crown 116406
Mail 116405
Hicks 116404
misleading 116403
insights 116402
freely 116401
social_networking 116400
Battle 116399
Toledo 116398
shortfall 116397
tribunal 116396
Puerto_Rico 116395
deficits 116394
clearance 116393
assessments 116392
duration 116391
accompanying 116390
Flight 116389
heart_disease 116388
Falls 116387
standout 116386
Osama_bin_Laden 116385
surrendered 116384
slim 116383
assisting 116382
kit 116381
UConn 116380
genre 116379
abuses 116378
K. 116377
overwhelmed 116376
documented 116375
Level 116374
mirror 116373
Baby 116372
Competition 116371
Outside 116370
defenseman 116369
dependence 116368
portions 116367
Bulgaria 116366
AA 116365
Interest 116364
recreational 116363
consuming 116362
breakdown 116361
cutting_edge 116360
revealing 116359
bust 116358
VA 116357
Mass 116356
racial 116355
predicting 116354
timetable 116353
wooden 116352
encountered 116351
Hours 116350
imminent 116349
belonged 116348
anticipation 116347
polling 116346
Fletcher 116345
trim 116344
sue 116343
whilst 116342
cemetery 116341
ultra 116340
Find 116339
deferred 116338
chased 116337
Kathy 116336
maturity 116335
mentor 116334
pub 116333
bilateral 116332
Deal 116331
cycling 116330
Carlos 116329
chiefs 116328
Ex 116327
injuring 116326
flee 116325
rebounded 116324
ammunition 116323
distant 116322
buyout 116321
circles 116320
fares 116319
secrets 116318
Expo 116317
expressing 116316
Urban 116315
niche 116314
toss 116313
Rockets 116312
constituents 116311
Lindsay 116310
compares 116309
nightmare 116308
Tulsa 116307
rockets 116306
Readers 116305
priest 116304
expenditures 116303
Nets 116302
oxygen 116301
Sources 116300
suspend 116299
preference 116298
inadequate 116297
confirms 116296
Jersey 116295
Cable 116294
Malaysian 116293
refrain 116292
revolutionary 116291
hunger 116290
controller 116289
scam 116288
easing 116287
Nash 116286
Leadership 116285
booking 116284
rode 116283
livestock 116282
Lost 116281
habit 116280
Reporter 116279
functioning 116278
signaled 116277
deliveries 116276
penny 116275
Circuit_Court 116274
slash 116273
Bernard 116272
Santa 116271
backyard 116270
villagers 116269
Beck 116268
wounding 116267
Elsewhere 116266
Meet 116265
surrender 116264
Rivers 116263
Stanley_Cup 116262
Brunswick 116261
accommodation 116260
intellectual_property 116259
Cardinal 116258
Lawmakers 116257
dish 116256
regulate 116255
predicts 116254
performs 116253
netted 116252
liquor 116251
Actually 116250
handles 116249
judged 116248
Tibet 116247
oral 116246
drilled 116245
relying 116244
modified 116243
suburbs 116242
tornado 116241
Olson 116240
destroying 116239
washed 116238
9th 116237
hurdles 116236
spy 116235
bizarre 116234
Nations 116233
shook 116232
Councilman 116231
reopen 116230
Hoffman 116229
Rebecca 116228
Universal 116227
unanimous 116226
invisible 116225
Something 116224
meltdown 116223
Palm 116222
Mubarak 116221
Berkeley 116220
protocol 116219
derived 116218
coordination 116217
dam 116216
Finance_Minister 116215
councilors 116214
twin 116213
scratch 116212
navigation 116211
Vodafone 116210
monitored 116209
airplane 116208
lure 116207
Meeting 116206
Drug_Administration 116205
Click 116204
doses 116203
Product 116202
verify 116201
Code 116200
bloc 116199
Airbus 116198
Fortunately 116197
Czech_Republic 116196
Kirk 116195
Airways 116194
okay 116193
fleeing 116192
ethical 116191
Sundays 116190
consumed 116189
Guardian 116188
pharmacy 116187
brush 116186
upheld 116185
traditions 116184
ears 116183
Guard 116182
intercepted 116181
expires 116180
faithful 116179
renew 116178
believing 116177
Willis 116176
raped 116175
Bucks 116174
digs 116173
punt 116172
Donna 116171
submission 116170
desired 116169
sexual_assault 116168
Telecom 116167
bones 116166
Participants 116165
metro 116164
insult 116163
Preston 116162
Thomson_Reuters 116161
receipt 116160
Leaders 116159
existed 116158
Hot 116157
clinical_trials 116156
organizer 116155
concentrated 116154
Round 116153
Berry 116152
spectators 116151
nationals 116150
persistent 116149
portal 116148
averages 116147
overseeing 116146
appliances 116145
minor_league 116144
naming 116143
mixture 116142
rebounding 116141
dismissal 116140
Paterson 116139
cultures 116138
staffing 116137
debates 116136
search_engine 116135
Want 116134
bullet 116133
disruption 116132
sovereignty 116131
clubhouse 116130
Castle 116129
MySpace 116128
confessed 116127
Blvd 116126
functional 116125
urges 116124
blasted 116123
candy 116122
feat 116121
indications 116120
unaware 116119
Families 116118
Helen 116117
installing 116116
fouled 116115
Seahawks 116114
Culture 116113
angle 116112
objections 116111
armed_forces 116110
Blagojevich 116109
Thunder 116108
Veterans 116107
Legal 116106
incomes 116105
Cardiff 116104
generic 116103
solicitation 116102
proposing 116101
curious 116100
bankers 116099
contestants 116098
prisons 116097
squeeze 116096
Chambers 116095
gangs 116094
BCS 116093
Voice 116092
Hansen 116091
Joint 116090
compatible 116089
Spirit 116088
tribe 116087
Torres 116086
BY 116085
propose 116084
UPI 116083
smallest 116082
Election 116081
wisdom 116080
container 116079
MS 116078
blessed 116077
activated 116076
eve 116075
spike 116074
councils 116073
owe 116072
earliest 116071
winger 116070
census 116069
pumped 116068
wings 116067
promotes 116066
continually 116065
Rescue 116064
incoming 116063
beside 116062
Congressional 116061
Bird 116060
endorse 116059
spur 116058
Sarkozy 116057
cornerback 116056
spirits 116055
evolved 116054
threshold 116053
Rod 116052
Drug 116051
minors 116050
qualities 116049
backdrop 116048
##:##_AM 116047
Nintendo 116046
rig 116045
Freshman 116044
Christie 116043
bets 116042
gross_domestic 116041
West_Indies 116040
informal 116039
rewarded 116038
protective 116037
Wells_Fargo 116036
Cody 116035
recognizing 116034
urgency 116033
handset 116032
Commons 116031
Charter 116030
boot 116029
hottest 116028
partisan 116027
Few 116026
shutdown 116025
ceremonies 116024
journal 116023
Bobcats 116022
independently 116021
kindergarten 116020
chipped 116019
amortization 116018
Industries 116017
critic 116016
blessing 116015
cotton 116014
procurement 116013
##:##_PM 116012
silly 116011
deliberately 116010
Rooney 116009
BlackBerry 116008
violates 116007
tapped 116006
Saturdays 116005
Chapman 116004
insisting 116003
##st_century 116002
Number 116001
uncovered 116000
Biden 115999
Bengals 115998
alleging 115997
epic 115996
blues 115995
merchants 115994
concludes 115993
punished 115992
complexity 115991
Newark 115990
Carpenter 115989
pioneer 115988
Vietnamese 115987
Danish 115986
Sunderland 115985
dancers 115984
Across 115983
financed 115982
fabric 115981
bicycle 115980
Vista 115979
Pfizer 115978
references 115977
Clayton 115976
forests 115975
infections 115974
Perth 115973
collaborative 115972
Admission 115971
regards 115970
albeit 115969
Ahmed 115968
dominance 115967
Portuguese 115966
VoIP 115965
uniforms 115964
Jennings 115963
patrons 115962
Blackburn 115961
nasty 115960
Eventually 115959
restart 115958
Campus 115957
dawn 115956
hate_speech 115955
wiped 115954
holy 115953
renewal 115952
slashed 115951
Georgian 115950
plunge 115949
O'Neill 115948
identical 115947
manual 115946
comic 115945
Christine 115944
Vision 115943
Nixon 115942
prone 115941
gaps 115940
refers 115939
Weber 115938
declaring 115937
Wang 115936
nod 115935
allocation 115934
autumn 115933
Beckham 115932
shoe 115931
Zach 115930
Previously 115929
alerts 115928
fundamentals 115927
exemption 115926
thoroughly 115925
vibrant 115924
Madonna 115923
hostages 115922
Lexington 115921
Norfolk 115920
Foley 115919
successes 115918
tackling 115917
repeal 115916
Grand_Slam 115915
ranch 115914
absent 115913
Floyd 115912
zoo 115911
genocide 115910
mum 115909
lawn 115908
telephone_interview 115907
Hull 115906
Arroyo 115905
tense 115904
motive 115903
cooperative 115902
bubble 115901
attraction 115900
overweight 115899
Hurricane 115898
analyzes 115897
Gordon_Brown 115896
pursued 115895
statute 115894
surviving 115893
UFC 115892
bleeding 115891
alerted 115890
jets 115889
exploit 115888
SAN_FRANCISCO 115887
measuring 115886
Webster 115885
Cunningham 115884
mount 115883
Quality 115882
supervisors 115881
shaking 115880
booming 115879
Petroleum 115878
Welcome 115877
alumni 115876
mentally 115875
floors 115874
builders 115873
echoed 115872
disabilities 115871
Entertainment_News 115870
O'Neal 115869
Wii 115868
tallied 115867
circulation 115866
Hungary 115865
whoever 115864
valley 115863
USB 115862
yearly 115861
Haven 115860
Nichols 115859
Behind 115858
Daytona 115857
railway 115856
arguably 115855
EPS 115854
rubber 115853
Either 115852
True 115851
endured 115850
Buckeyes 115849
Brothers 115848
instructed 115847
underneath 115846
Associated_Press_writers 115845
FM 115844
supposedly 115843
leases 115842
ensures 115841
Deutsche_Bank 115840
assassination 115839
blasts 115838
Technical 115837
Benjamin 115836
Resort 115835
logic 115834
outgoing 115833
laughed 115832
Rookie 115831
cellular 115830
Gibbs 115829
IOC 115828
unrelated 115827
imposing 115826
Nor 115825
confront 115824
hamstring 115823
Send 115822
sack 115821
Leon 115820
defenses 115819
diversified 115818
wrongdoing 115817
scrap 115816
Samuel 115815
gene 115814
Timothy 115813
knees 115812
Equity 115811
Revolution 115810
Try 115809
Editing 115808
Brand 115807
siblings 115806
Trail 115805
expenditure 115804
concepts 115803
wines 115802
foreclosures 115801
Volunteers 115800
profiles 115799
Java 115798
glove 115797
Double 115796
settling 115795
emerging_markets 115794
incurred 115793
twelve 115792
forefront 115791
Newport 115790
racism 115789
overcame 115788
IN 115787
Patricia 115786
MA 115785
Mar 115784
FAA 115783
West_Ham 115782
Vienna 115781
Century 115780
imagination 115779
cigarette 115778
privately 115777
adopting 115776
scan 115775
Thornton 115774
Apart 115773
lean 115772
Salt_Lake_City 115771
lecture 115770
Bear 115769
Latino 115768
Long_Beach 115767
wreck 115766
Earl 115765
Metropolitan 115764
Start 115763
Wendy 115762
planting 115761
alter 115760
graduating 115759
stellar 115758
Abbott 115757
Flash 115756
overhead 115755
####.## 115754
CDC 115753
glasses 115752
customs 115751
banning 115750
Similarly 115749
harassment 115748
Opera 115747
apparel 115746
colored 115745
grace 115744
unsuccessful 115743
stationed 115742
attackers 115741
measurement 115740
Yorkshire 115739
males 115738
containers 115737
automobile 115736
skip 115735
bronze 115734
Wolf 115733
revival 115732
distinction 115731
leading_scorer 115730
detective 115729
Baldwin 115728
wide_variety 115727
Email 115726
sinking 115725
baskets 115724
Witnesses 115723
resolutions 115722
distinguished 115721
translate 115720
superstar 115719
consisting 115718
##/##/## 115717
Tottenham 115716
cop 115715
dump 115714
Kingston 115713
sequence 115712
calories 115711
Coca_Cola 115710
processors 115709
Otherwise 115708
tail 115707
intervene 115706
Country_Club 115705
swinging 115704
Official 115703
outlet 115702
explosions 115701
firearms 115700
specializing 115699
breed 115698
receptions 115697
healthier 115696
educators 115695
excluded 115694
strictly 115693
Angel 115692
inception 115691
restrict 115690
p 115689
laptops 115688
refund 115687
designing 115686
Independence 115685
looming 115684
Courtney 115683
stockholders 115682
Clemens 115681
alternate 115680
purse 115679
Liberals 115678
Commissioners 115677
Pelosi 115676
varied 115675
Williamson 115674
Formula_One 115673
Block 115672
surfaced 115671
secular 115670
ours 115669
lighter 115668
Fitzgerald 115667
construct 115666
Wildlife 115665
lit 115664
ate 115663
Girl 115662
sensitivity 115661
refuses 115660
Nolan 115659
Ruth 115658
correction 115657
recipes 115656
toe 115655
Q1 115654
Mom 115653
allowance 115652
attitudes 115651
FTSE 115650
occurring 115649
aerospace 115648
Frederick 115647
clinched 115646
hander 115645
Guy 115644
honestly 115643
Hopkins 115642
derivatives 115641
Caldwell 115640
Congo 115639
Rights 115638
stemming 115637
Nissan 115636
unanimously 115635
fixture 115634
Queens 115633
Fraser 115632
therapeutic 115631
CFO 115630
sluggish 115629
sticks 115628
sciences 115627
Mercury 115626
Palestine 115625
commissions 115624
© 115623
Electric 115622
pumping 115621
possessions 115620
Direct 115619
ferry 115618
giants 115617
dominating 115616
Plant 115615
ET 115614
mobility 115613
congressman 115612
Conservation 115611
Hawkins 115610
additions 115609
Chandler 115608
codes 115607
petrol 115606
Raleigh 115605
competitiveness 115604
disappearance 115603
seize 115602
HSBC 115601
WHO 115600
slaying 115599
reopened 115598
respects 115597
brick 115596
shelf 115595
Focus 115594
password 115593
Engineers 115592
intimate 115591
bias 115590
Gross 115589
Klein 115588
Tower 115587
shine 115586
wholly_owned_subsidiary 115585
rings 115584
Judy 115583
Final_Four 115582
forums 115581
laser 115580
Article 115579
unlawful 115578
thankful 115577
Sandy 115576
demonstrating 115575
romance 115574
smuggling 115573
housed 115572
moratorium 115571
Starbucks 115570
Running 115569
pivotal 115568
Silva 115567
pipes 115566
Survey 115565
namely 115564
beverage 115563
denial 115562
sights 115561
stamp 115560
Valencia 115559
owning 115558
issuance 115557
inviting 115556
contributor 115555
Statistics 115554
cleaned 115553
tide 115552
consult 115551
observe 115550
emails 115549
relies 115548
Cornell 115547
boots 115546
Alice 115545
habitat 115544
reservation 115543
parish 115542
runoff 115541
prompt 115540
Funds 115539
Gonzales 115538
outrage 115537
Sound 115536
corridor 115535
Dad 115534
watches 115533
Gadhafi 115532
listings 115531
Partner 115530
Employees 115529
Benson 115528
fraction 115527
Belgian 115526
smartphone 115525
depressed 115524
realizing 115523
sexy 115522
addiction 115521
creator 115520
Command 115519
clouds 115518
starred 115517
Donovan 115516
voluntarily 115515
BEIJING 115514
Plymouth 115513
retention 115512
jacket 115511
Czech 115510
hurts 115509
County_Jail 115508
treasurer 115507
Harry_Potter 115506
hurricanes 115505
underwent 115504
Health_Care 115503
pan 115502
vaccines 115501
scenarios 115500
Ronald 115499
Patients 115498
gardens 115497
solved 115496
stimulate 115495
misconduct 115494
leap 115493
Whitney 115492
shelves 115491
candidacy 115490
Lehman 115489
Ralph 115488
Sterling 115487
Empire 115486
Thomson_Financial 115485
appetite 115484
bothered 115483
FEMA 115482
shell 115481
injection 115480
essence 115479
Dodge 115478
eligibility 115477
sliding 115476
Voters 115475
pen 115474
bans 115473
automation 115472
T_shirt 115471
borrowed 115470
£_##m 115469
verge 115468
Mavericks 115467
poultry 115466
Allison 115465
Mortgage 115464
promptly 115463
sensors 115462
worlds 115461
Athletic 115460
Manufacturing 115459
expose 115458
Mickelson 115457
accurately 115456
Stage 115455
structured 115454
Thomson 115453
setup 115452
suffers 115451
Vanderbilt 115450
relied 115449
Victor 115448
Victorian 115447
reunion 115446
marched 115445
Dawson 115444
Middle 115443
tags 115442
Revenues 115441
tonne 115440
shower 115439
TORONTO 115438
shirts 115437
continuously 115436
Eugene 115435
Lawyers 115434
similarly 115433
batter 115432
Reyes 115431
positioning 115430
Oak 115429
Real_Estate 115428
personalized 115427
towers 115426
supermarket 115425
notorious 115424
happiness 115423
Sale 115422
filmed 115421
monster 115420
mysterious 115419
Thirty 115418
Sharp 115417
Catherine 115416
kilometer 115415
Common 115414
Weaver 115413
specified 115412
Imagine 115411
AG 115410
ice_cream 115409
logical 115408
fiction 115407
isolation 115406
indexes 115405
vintage 115404
East_Coast 115403
Invitational 115402
acute 115401
reminds 115400
glimpse 115399
berth 115398
Ultimately 115397
Average 115396
Perkins 115395
Public_Library 115394
Grove 115393
Sophomore 115392
yielded 115391
draft_pick 115390
Lafayette 115389
grams 115388
subjected 115387
pirates 115386
streams 115385
notices 115384
framing 115383
clues 115382
firefighter 115381
ward 115380
liter 115379
decorated 115378
embarrassed 115377
helm 115376
tightening 115375
collectively 115374
cheering 115373
fascinating 115372
Studio 115371
sided 115370
mice 115369
technically 115368
reasonably 115367
notification 115366
replaces 115365
Lyon 115364
surprises 115363
collided 115362
lining 115361
archive 115360
coordinate 115359
Mother 115358
IV 115357
Rivera 115356
shattered 115355
bandwidth 115354
mouse 115353
constituency 115352
welcomes 115351
ditch 115350
practically 115349
outdoors 115348
Leslie 115347
Put 115346
shouted 115345
restoring 115344
Aberdeen 115343
stabbing 115342
Adelaide 115341
positively 115340
clause 115339
Stay 115338
discretion 115337
defending_champion 115336
extremists 115335
Mining 115334
Continental 115333
Sudanese 115332
drills 115331
abusive 115330
Sara 115329
sympathy 115328
ailing 115327
unified 115326
grandson 115325
welcoming 115324
Bad 115323
newer 115322
Georgia_Tech 115321
arise 115320
comprising 115319
portfolios 115318
Joshua 115317
territories 115316
SmarTrend 115315
Hanson 115314
pork 115313
Yahoo! 115312
notch 115311
Betty 115310
Diane 115309
Inn 115308
WTO 115307
misses 115306
sink 115305
throat 115304
allegation 115303
commercials 115302
Sutton 115301
Byrd 115300
reactor 115299
Manila 115298
Sherman 115297
Gateway 115296
Circuit 115295
punched 115294
LP 115293
Trinity 115292
abducted 115291
PG 115290
Ethiopia 115289
#,###.# 115288
retirees 115287
frames 115286
admitting 115285
demolition 115284
requesting 115283
hooked 115282
Cyprus 115281
Headquartered 115280
attributable 115279
Schneider 115278
themed 115277
disrupt 115276
USDA 115275
Age 115274
Lancaster 115273
Front 115272
laughs 115271
Homes 115270
Frost 115269
dean 115268
governmental 115267
judiciary 115266
Norwegian 115265
horizon 115264
hunters 115263
portrait 115262
makeup 115261
Azerbaijan 115260
NZ 115259
Higher 115258
Copenhagen 115257
Kelley 115256
emphasize 115255
landfill 115254
utilizing 115253
Event 115252
Ricky 115251
arc 115250
surging 115249
Tests 115248
newsletter 115247
clinch 115246
poetry 115245
Crosby 115244
egg 115243
vertical 115242
ignoring 115241
Dog 115240
weaknesses 115239
supplying 115238
accidentally 115237
exporters 115236
midday 115235
MLS 115234
miracle 115233
qualifier 115232
Teams 115231
suppose 115230
leasing 115229
mandated 115228
cracked 115227
portrayed 115226
bogey 115225
certificates 115224
compensate 115223
slots 115222
heroin 115221
bargain 115220
El_Paso 115219
Steele 115218
Dream 115217
plates 115216
sailing 115215
dispatched 115214
defensively 115213
experimental 115212
boring 115211
staging 115210
statue 115209
propaganda 115208
Indy 115207
consolidate 115206
Dollar 115205
diplomacy 115204
farther 115203
supplement 115202
capturing 115201
standoff 115200
rejection 115199
priests 115198
innovations 115197
lengths 115196
BOSTON 115195
attributes 115194
Events 115193
Edge 115192
observation 115191
Li 115190
participant 115189
contributors 115188
rewarding 115187
clever 115186
bikes 115185
Palace 115184
Blue_Jays 115183
McCoy 115182
Europeans 115181
prolonged 115180
treats 115179
selecting 115178
Dana 115177
leisure 115176
burns 115175
clarity 115174
exceeding 115173
professors 115172
Enron 115171
wished 115170
fruits 115169
Supporters 115168
weakening 115167
profound 115166
F1 115165
inauguration 115164
Verizon_Wireless 115163
stranger 115162
Banking 115161
hat_trick 115160
smoothly 115159
slain 115158
Fast 115157
Pearson 115156
specifics 115155
akin 115154
Clippers 115153
George_W._Bush 115152
contentious 115151
Fiji 115150
freezing 115149
Russians 115148
caucus 115147
contends 115146
exchanged 115145
Circle 115144
premature 115143
sidewalk 115142
Parkway 115141
greens 115140
rout 115139
Texans 115138
Schwartz 115137
Rd 115136
unexpectedly 115135
cease_fire 115134
Venezuelan 115133
bow 115132
Karachi 115131
Andre 115130
Join 115129
Payne 115128
downloaded 115127
Nuggets 115126
Regardless 115125
Close 115124
HBO 115123
harmful 115122
Human_Services 115121
Ph.D. 115120
militia 115119
Rules 115118
pinch 115117
IAEA 115116
homeland 115115
fancy 115114
Barclays 115113
ranged 115112
Olmert 115111
uninsured 115110
scrimmage 115109
individually 115108
clay 115107
accord 115106
deceased 115105
disastrous 115104
redevelopment 115103
Dead 115102
protections 115101
unconstitutional 115100
E_mail 115099
termination 115098
seating 115097
disappear 115096
undoubtedly 115095
twins 115094
uprising 115093
Edition 115092
Rebels 115091
autopsy 115090
thumb 115089
installations 115088
Jackie 115087
stretches 115086
Diaz 115085
Fatah 115084
HK 115083
drain 115082
nickname 115081
caliber 115080
minorities 115079
endless 115078
Baptist 115077
Except 115076
comparing 115075
em 115074
#:##_PM_ET 115073
wild_card 115072
outfielder 115071
subtle 115070
Fulham 115069
companion 115068
broadcaster 115067
density 115066
fraudulent 115065
Tunisia 115064
Ever 115063
Saskatchewan 115062
Word 115061
exhibits 115060
biotechnology 115059
adequately 115058
batch 115057
Upper 115056
gay_marriage 115055
nightclub 115054
afterwards 115053
fluid 115052
famed 115051
NYC 115050
contamination 115049
pumps 115048
Sept 115047
Computer 115046
scheduling 115045
Economists 115044
Short_Term_PowerRatings 115043
Gomez 115042
Municipal 115041
cooked 115040
feeds 115039
disciplined 115038
T_shirts 115037
suing 115036
Soviet_Union 115035
slumped 115034
raided 115033
indigenous 115032
dug 115031
distributing 115030
Economic_Development 115029
Side 115028
popped 115027
grandparents 115026
primaries 115025
Kane 115024
spun 115023
Nationwide 115022
lifts 115021
sequel 115020
Applications 115019
arrange 115018
BA 115017
Hardy 115016
economically 115015
Darren 115014
Economy 115013
honoring 115012
dial 115011
defeats 115010
Juan 115009
Diana 115008
BYU 115007
artwork 115006
growers 115005
leather 115004
modeling 115003
Worldwide 115002
shaky 115001
Follow 115000
illnesses 114999
pronounced_dead 114998
singers 114997
pictured 114996
WWE 114995
personalities 114994
staffers 114993
Adrian 114992
rubble 114991
###-# 114990
inspiring 114989
Q. 114988
neglect 114987
hype 114986
trace 114985
bullets 114984
HIV_AIDS 114983
Hannah 114982
Shelby 114981
Bedford 114980
pairs 114979
preceded 114978
Memorial_Day 114977
necessity 114976
Rio 114975
unusually 114974
McLaren 114973
formats 114972
crashing 114971
dive 114970
demographic 114969
exams 114968
pools 114967
guilt 114966
contracting 114965
void 114964
Erin 114963
Flames 114962
Omaha 114961
Sweet 114960
float 114959
rented 114958
Dozens 114957
opera 114956
asthma 114955
intellectual 114954
layers 114953
ambitions 114952
reliever 114951
downside 114950
acknowledges 114949
Responding 114948
Zoo 114947
loads 114946
Movement 114945
surpassed 114944
marketed 114943
hammer 114942
gesture 114941
ladder 114940
ATLANTA 114939
bits 114938
negotiation 114937
broadly 114936
Aside 114935
mechanisms 114934
mineral 114933
grief 114932
hefty 114931
masses 114930
Cemetery 114929
Pre 114928
arson 114927
touches 114926
Return 114925
aspirations 114924
orchestra 114923
temple 114922
Works 114921
alleges 114920
slice 114919
bye 114918
Large 114917
Olympic_Games 114916
specify 114915
converting 114914
Andrea 114913
phenomenal 114912
Arctic 114911
totals 114910
forecasting 114909
Beth 114908
corresponding 114907
Ortiz 114906
cholesterol 114905
sheer 114904
Willie 114903
arbitration 114902
contested 114901
stormed 114900
hence 114899
fortunes 114898
outings 114897
freight 114896
inclusive 114895
junk 114894
Curry 114893
Netanyahu 114892
Arabs 114891
leaning 114890
Visitors 114889
warming 114888
Basic 114887
hedge_funds 114886
sailors 114885
CDs 114884
assumption 114883
heightened 114882
authentic 114881
photographers 114880
tricky 114879
taxi 114878
keyboard 114877
packing 114876
flies 114875
Ukrainian 114874
unsure 114873
stats 114872
Upon 114871
sprint 114870
sacrifice_fly 114869
brink 114868
ranges 114867
Harrington 114866
Kazakhstan 114865
chaired 114864
railroad 114863
precision 114862
Lead 114861
delight 114860
Animal 114859
congregation 114858
Speed 114857
Forbes 114856
distinctive 114855
privately_held 114854
jumps 114853
highlighting 114852
bull 114851
Sox 114850
stretching 114849
Box 114848
tunes 114847
patrols 114846
trainers 114845
Cruz 114844
prosecuted 114843
monetary_policy 114842
Norwich 114841
Tomorrow 114840
Burlington 114839
logging 114838
publicly_traded 114837
Operation 114836
grabbing 114835
infamous 114834
Janet 114833
unauthorized 114832
Angela 114831
Randolph 114830
cushion 114829
gamers 114828
Arabic 114827
protesting 114826
tumor 114825
Catholic_Church 114824
DVDs 114823
exile 114822
preservation 114821
poorest 114820
charitable 114819
UPDATE 114818
improper 114817
rains 114816
riot 114815
intentionally 114814
screened 114813
Lightning 114812
configuration 114811
Gene 114810
International_Monetary_Fund 114809
prohibit 114808
quantity 114807
experiments 114806
trap 114805
unavailable 114804
Corey 114803
lied 114802
woke 114801
£_###m 114800
punish 114799
Aussie 114798
balances 114797
utilized 114796
Annan 114795
criticize 114794
furious 114793
harbor 114792
hinted 114791
playground 114790
qualification 114789
confined 114788
wonders 114787
Resource 114786
mask 114785
Fort_Worth 114784
gig 114783
sponsoring 114782
oath 114781
renewable 114780
rap 114779
ANC 114778
T_Mobile 114777
phases 114776
digging 114775
ambition 114774
losers 114773
shrinking 114772
shouting 114771
RSS 114770
reversal 114769
Wachovia 114768
Frankfurt 114767
billed 114766
consequence 114765
Tennis 114764
Dawn 114763
pinned 114762
Faith 114761
pulls 114760
preserving 114759
Emma 114758
proposes 114757
price_tag 114756
Offer 114755
Outlook 114754
installment 114753
blanket 114752
Chennai 114751
pointer 114750
Shortly 114749
Innovation 114748
designation 114747
Environmental_Protection_Agency 114746
exhausted 114745
posing 114744
mentality 114743
federation 114742
Morning 114741
accordingly 114740
rigorous 114739
identities 114738
hint 114737
United_Arab_Emirates 114736
selections 114735
Track 114734
Speedway 114733
Writers 114732
assessing 114731
Blue_Devils 114730
upward 114729
FA_Cup 114728
baseline 114727
pond 114726
patented 114725
expands 114724
Especially 114723
Cape 114722
verification 114721
academics 114720
campuses 114719
Gore 114718
foremost 114717
handsets 114716
Canucks 114715
Strategy 114714
Know 114713
plight 114712
heal 114711
thieves 114710
queen 114709
Nature 114708
solidarity 114707
aided 114706
overlooked 114705
tolerated 114704
Drake 114703
Strategic 114702
coat 114701
fertilizer 114700
Santos 114699
granting 114698
trustee 114697
planners 114696
Elections 114695
evacuate 114694
inaccurate 114693
columns 114692
Manuel 114691
advertisements 114690
firearm 114689
golfers 114688
Farmers 114687
driveway 114686
lightning 114685
Norton 114684
altered 114683
standpoint 114682
Florence 114681
tighter 114680
subsidy 114679
indirectly 114678
Howell 114677
richest 114676
sunny 114675
absorb 114674
consulting_firm 114673
guides 114672
NEW_DELHI 114671
YMCA 114670
astronauts 114669
Beirut 114668
weaken 114667
Really 114666
opposes 114665
evolving 114664
Recovery 114663
Presidential 114662
jeans 114661
Customs 114660
Usually 114659
festivities 114658
touted 114657
lobbyists 114656
beta 114655
toilet 114654
grocery 114653
Sanford 114652
policeman 114651
plaintiff 114650
luncheon 114649
listeners 114648
kg 114647
AFL 114646
Amsterdam 114645
Rodgers 114644
costumes 114643
flawed 114642
Pierre 114641
mass_destruction 114640
builder 114639
Essex 114638
Fresh 114637
pledges 114636
Wigan 114635
outskirts 114634
closures 114633
businessmen 114632
module 114631
royalty 114630
criticizing 114629
RCMP 114628
nicely 114627
Jakarta 114626
Joan 114625
Often 114624
Austrian 114623
tendency 114622
certainty 114621
partnered 114620
wheelchair 114619
obstacle 114618
sheets 114617
proactive 114616
coroner 114615
shaping 114614
smiles 114613
foundations 114612
Interior 114611
Q3 114610
pm_ET 114609
festivals 114608
TSX 114607
cabin 114606
smokers 114605
protects 114604
Neal 114603
exclude 114602
stuffed 114601
doubling 114600
showers 114599
rupees 114598
purely 114597
semi_finals 114596
Saunders 114595
cares 114594
topping 114593
Tory 114592
Croatia 114591
Hancock 114590
Consider 114589
Heights 114588
catastrophic 114587
breast 114586
shutting 114585
chemotherapy 114584
tolerance 114583
bullying 114582
wives 114581
fallout 114580
tapes 114579
Carey 114578
Brennan 114577
Wheeler 114576
ballpark 114575
Nike 114574
gloves 114573
Globe 114572
whites 114571
Saint 114570
benefiting 114569
southeastern 114568
Investments 114567
Blood 114566
upgrading 114565
Benedict 114564
earns 114563
Lawson 114562
Natural_Resources 114561
piracy 114560
animation 114559
Harbor 114558
town_hall 114557
Red_Wings 114556
Abdullah 114555
attacker 114554
emergence 114553
Ice 114552
precedent 114551
organizational 114550
literacy 114549
basics 114548
presumably 114547
La 114546
Xavier 114545
northeastern 114544
Springs 114543
Democracy 114542
aces 114541
Proceeds 114540
stimulus_package 114539
article_contains 114538
MW 114537
Bring 114536
enthusiasts 114535
generates 114534
coveted 114533
Books 114532
Winnipeg 114531
Halifax 114530
Sri_Lankan 114529
lover 114528
clarify 114527
Prosecutor 114526
elegant 114525
concussion 114524
jam 114523
wears 114522
Chair 114521
Annual_Report 114520
disrupted 114519
dumping 114518
nearest 114517
shipment 114516
Stephens 114515
vulnerability 114514
behind_bars 114513
liberty 114512
Personal 114511
Somali 114510
seventh_inning 114509
disasters 114508
accomplishment 114507
comparisons 114506
advising 114505
Securities_Act 114504
downloads 114503
spinning 114502
tenth 114501
envoy 114500
Freddie_Mac 114499
Fairfield 114498
offensively 114497
old_fashioned 114496
crises 114495
fairness 114494
Aurora 114493
Detective 114492
cancellation 114491
perimeter 114490
Knox 114489
Holding 114488
MLB 114487
Flynn 114486
Kay 114485
filter 114484
acquitted 114483
Job 114482
boarding 114481
inconsistent 114480
Corps 114479
Cindy 114478
boundary 114477
Soldiers 114476
surgical 114475
constraints 114474
troop 114473
Dylan 114472
FA 114471
navigate 114470
Pacers 114469
Apr 114468
TDs 114467
Appeal 114466
robot 114465
Brewer 114464
Madoff 114463
Tri 114462
scholars 114461
footprint 114460
Mediterranean 114459
Best_Buy 114458
resistant 114457
possess 114456
youngster 114455
partnering 114454
attractions 114453
reactions 114452
swift 114451
backlog 114450
franchises 114449
cheered 114448
prescribed 114447
Hayden 114446
Wichita 114445
Everett 114444
fabulous 114443
homeowner 114442
innocence 114441
darkness 114440
imagined 114439
terrain 114438
tore 114437
Paper 114436
modules 114435
fumble 114434
Sarah_Palin 114433
Argentine 114432
strive 114431
Beatles 114430
Debbie 114429
proceeding 114428
Hewitt 114427
Available 114426
Disease_Control 114425
dismal 114424
insurgent 114423
Cavs 114422
Leicester 114421
cared 114420
grasp 114419
tablet 114418
Fridays 114417
mold 114416
submitting 114415
Cats 114414
justices 114413
arising 114412
compounds 114411
Copyright 114410
Beginning 114409
Holocaust 114408
staggering 114407
narrative 114406
delicious 114405
pills 114404
Base 114403
spreads 114402
liver 114401
Protection 114400
scorers 114399
Giuliani 114398
Harold 114397
productions 114396
Home_Depot 114395
leveled 114394
Anything 114393
Victory 114392
Colombian 114391
literary 114390
consist 114389
Muhammad 114388
insufficient 114387
turkey 114386
intriguing 114385
pros 114384
varieties 114383
lightly 114382
narrowly 114381
scoreboard 114380
costume 114379
fatigue 114378
minor_injuries 114377
awkward 114376
Basically 114375
adaptation 114374
Hillary_Rodham_Clinton 114373
salmon 114372
outrageous 114371
assurances 114370
Levy 114369
Mack 114368
tighten 114367
Nielsen 114366
finalist 114365
Potter 114364
Alzheimer 114363
briefed 114362
breeding 114361
Bucs 114360
assaulted 114359
accuse 114358
marketers 114357
shallow 114356
Defense_Secretary 114355
Barton 114354
prediction 114353
bump 114352
Higgins 114351
reconsider 114350
optimize 114349
Carlson 114348
tortured 114347
Germans 114346
deliberate 114345
Employment 114344
eighth_inning 114343
UT 114342
cute 114341
expressed_concern 114340
lodged 114339
doping 114338
euro_zone 114337
slipping 114336
Senior_Vice 114335
Call_###-###-#### 114334
curve 114333
commodity_prices 114332
Holly 114331
embarrassment 114330
renovations 114329
Boulder 114328
grabs 114327
assumes 114326
Sep 114325
Pro_Bowl 114324
potent 114323
pause 114322
Bollywood 114321
rage 114320
versatile 114319
leased 114318
gunfire 114317
inherited 114316
fluctuations 114315
Highland 114314
Past 114313
CBI 114312
reorganization 114311
sheep 114310
isn'ta 114309
Pride 114308
unpopular 114307
tangible 114306
Keller 114305
Wake_Forest 114304
hats 114303
composition 114302
forged 114301
rocked 114300
affordable_housing 114299
Q2 114298
iron_ore 114297
shorts 114296
Kremlin 114295
Rita 114294
homework 114293
trafficking 114292
hikes 114291
narrowed 114290
weighs 114289
Walton 114288
entertain 114287
vice_versa 114286
unpaid 114285
Canyon 114284
rainfall 114283
optional 114282
cookies 114281
overwhelmingly 114280
Civil_War 114279
intensified 114278
Daly 114277
crafts 114276
Morales 114275
protested 114274
ample 114273
clips 114272
equality 114271
recordings 114270
transferring 114269
accepts 114268
tactical 114267
Infrastructure 114266
Boone 114265
tube 114264
Solar 114263
widow 114262
grim 114261
CRM 114260
Cape_Town 114259
Consulting 114258
A### 114257
fastball 114256
Experience 114255
empire 114254
imprisonment 114253
Jaguars 114252
buttons 114251
ensured 114250
Julia 114249
Networks 114248
debated 114247
predictable 114246
naval 114245
fever 114244
divorced 114243
flip 114242
Marsh 114241
immense 114240
Haitian 114239
steer 114238
riots 114237
Barker 114236
confusing 114235
Crystal 114234
consume 114233
sprawling 114232
emotionally 114231
Need 114230
Q4 114229
airing 114228
rematch 114227
inherent 114226
hills 114225
ninth_inning 114224
seafood 114223
Acting 114222
-## 114221
aggression 114220
umbrella 114219
undertaking 114218
Distribution 114217
ministries 114216
MSU 114215
exceptions 114214
rifle 114213
al 114212
reacted 114211
Panama 114210
Probably 114209
admissions 114208
Akron 114207
Sandra 114206
Teen 114205
spilled 114204
Van 114203
nephew 114202
optical 114201
Winning 114200
hedge_fund 114199
authorization 114198
broadcasters 114197
Trevor 114196
Roddick 114195
inspector 114194
cooperating 114193
advisors 114192
tribes 114191
cleaner 114190
impoverished 114189
asserted 114188
Task_Force 114187
notched 114186
commercialization 114185
branding 114184
golfer 114183
ERA 114182
recycled 114181
gays 114180
Champions 114179
reigning 114178
accumulated 114177
troubling 114176
upscale 114175
OF 114174
Wine 114173
infield 114172
cooler 114171
Anti 114170
owes 114169
nuts 114168
thrilling 114167
muscles 114166
widening 114165
Veteran 114164
Rising 114163
without_limitation 114162
Rush 114161
Samantha 114160
Pool 114159
Athletics 114158
sampling 114157
Ban 114156
graphic 114155
hampered 114154
Weather 114153
Pay 114152
Reggie 114151
shaken 114150
interfere 114149
pleasant 114148
Mill 114147
busiest 114146
clutch 114145
forensic 114144
waved 114143
comprises 114142
Sex 114141
Marathon 114140
debuted 114139
carbon_dioxide 114138
chunk 114137
undercover 114136
Catholics 114135
downgraded 114134
Buck 114133
tents 114132
newcomers 114131
Grizzlies 114130
Nikkei 114129
Movie 114128
edited 114127
instability 114126
presently 114125
Skype 114124
integrating 114123
fuels 114122
Say 114121
swung 114120
judging 114119
translated 114118
surf 114117
Card 114116
Nazi 114115
immunity 114114
eg 114113
Fields 114112
refineries 114111
prosecute 114110
challenger 114109
Weekly 114108
thriller 114107
Re 114106
Mann 114105
amenities 114104
casualty 114103
refuge 114102
handgun 114101
List 114100
PlayStation 114099
genius 114098
pedestrian 114097
succession 114096
premise 114095
volunteered 114094
objected 114093
bowlers 114092
rumor 114091
unsafe 114090
therapies 114089
Dancing 114088
disagreed 114087
dire 114086
barn 114085
bowled 114084
Rumsfeld 114083
Gill 114082
chambers 114081
Gartner 114080
OSU 114079
Tour_de 114078
Iceland 114077
flaws 114076
mailed 114075
preserved 114074
offensive_coordinator 114073
outline 114072
destined 114071
blank 114070
applause 114069
exotic 114068
squads 114067
continuity 114066
wishing 114065
regained 114064
approves 114063
savvy 114062
packs 114061
defining 114060
Song 114059
fitted 114058
Mine 114057
migrants 114056
filmmakers 114055
Davenport 114054
satisfying 114053
tentative 114052
encouragement 114051
minimum_wage 114050
ejected 114049
wallet 114048
Eleven 114047
insider 114046
amazed 114045
enjoyable 114044
merits 114043
cheating 114042
beneficiaries 114041
Conway 114040
analytics 114039
confirming 114038
tanker 114037
Main_St. 114036
adapted 114035
blaming 114034
via_email 114033
Wind 114032
entrepreneur 114031
Forty 114030
stringent 114029
Spears 114028
sensor 114027
cease 114026
raw_materials 114025
disciplinary 114024
mln 114023
Weekend 114022
juniors 114021
Kandahar 114020
toured 114019
Mo. 114018
horrific 114017
interrupted 114016
indirect 114015
consumer_electronics 114014
choir 114013
insured 114012
heavyweight 114011
Sweeney 114010
Shirley 114009
shield 114008
prevents 114007
Initially 114006
burial 114005
large_scale 114004
bounds 114003
seminars 114002
indefinitely 114001
registering 114000
loading 113999
magical 113998
delicate 113997
involve_risks 113996
allied 113995
notebook 113994
lingering 113993
Somerset 113992
Filipino 113991
Video_More_>> 113990
Kerr 113989
engineered 113988
hurdle 113987
skate 113986
Representative 113985
qualifications 113984
miserable 113983
breathe 113982
cracks 113981
NOT 113980
unnamed 113979
bride 113978
Reform 113977
Commander 113976
messaging 113975
hurry 113974
deadliest 113973
Belarus 113972
comfortably 113971
AT 113970
Aggies 113969
neat 113968
enhancements 113967
Lahore 113966
principals 113965
Traders 113964
bucket 113963
Launches 113962
thrive 113961
Communist_Party 113960
inevitably 113959
ruined 113958
discounted 113957
Paulson 113956
UW 113955
stiff 113954
verbal 113953
Islamist 113952
liberals 113951
retaliation 113950
Allan 113949
Dalai_Lama 113948
shrink 113947
commence 113946
Mass. 113945
GP 113944
drastic 113943
spurred 113942
pouring 113941
merge 113940
garnered 113939
Properties 113938
whatsoever 113937
theirs 113936
angered 113935
councilor 113934
wasn'ta 113933
Ramsey 113932
tongue 113931
autism 113930
Liz 113929
reign 113928
compromised 113927
tripled 113926
surgeon 113925
Chevrolet 113924
efficiencies 113923
Pioneer 113922
Algeria 113921
Longhorns 113920
Ministers 113919
analyzing 113918
bidders 113917
Fallujah 113916
Risk 113915
hectares 113914
hatred 113913
Excellence 113912
money_laundering 113911
Businesses 113910
prop 113909
accuses 113908
solving 113907
appropriately 113906
Bentley 113905
tainted 113904
mega 113903
slick 113902
unwanted 113901
Fowler 113900
Kurds 113899
Tyson 113898
Adding 113897
tolerate 113896
artificial 113895
herein 113894
Fleming 113893
cows 113892
---- 113891
Belmont 113890
Month 113889
Brighton 113888
United_Methodist_Church 113887
Karl 113886
Pearl 113885
Self 113884
influences 113883
Thursdays 113882
Vaughan 113881
leaks 113880
flavors 113879
crush 113878
touchdown_passes 113877
binding 113876
lightweight 113875
Crime 113874
enforced 113873
risks_associated 113872
Jammu 113871
overview 113870
pressured 113869
irresponsible 113868
laughter 113867
Laboratory 113866
transplant 113865
females 113864
continuation 113863
thirty 113862
infants 113861
Katherine 113860
slate 113859
fatalities 113858
defensive_coordinator 113857
Choice 113856
grand_slam 113855
readings 113854
Jill 113853
stems 113852
societies 113851
Gerald 113850
Crews 113849
retaining 113848
dunk 113847
lakes 113846
impress 113845
Liu 113844
Danielle 113843
kiss 113842
aunt 113841
bracket 113840
Lambert 113839
donating 113838
Concord 113837
terminated 113836
countered 113835
classmates 113834
dealership 113833
Mercer 113832
magnificent 113831
Prison 113830
brains 113829
charm 113828
LTTE 113827
cycles 113826
catastrophe 113825
Raptors 113824
assistants 113823
Morton 113822
buck 113821
truce 113820
whereabouts 113819
Oilers 113818
navy 113817
Model 113816
epidemic 113815
Gujarat 113814
champ 113813
skiing 113812
humble 113811
assignments 113810
Investigation 113809
chief_economist 113808
geographic 113807
openings 113806
architectural 113805
pronounced 113804
physics 113803
answering 113802
backward 113801
variations 113800
Rule 113799
nonetheless 113798
air_conditioning 113797
Enterprises 113796
enduring 113795
persuaded 113794
Sims 113793
Singer 113792
MBA 113791
Sears 113790
filmmaker 113789
deter 113788
severity 113787
specifications 113786
Joey 113785
Communication 113784
deteriorating 113783
checkpoint 113782
BUSINESS_WIRE 113781
Malta 113780
psychology 113779
policing 113778
Silicon_Valley 113777
Quote_Profile_Research 113776
tailored 113775
submissions 113774
spouse 113773
reimbursement 113772
#.##am 113771
Terms 113770
Morocco 113769
compassion 113768
credit_crunch 113767
Hillary 113766
Trinidad 113765
Deputies 113764
oh 113763
ideology 113762
purple 113761
Commenting 113760
formidable 113759
Bend 113758
sexual_abuse 113757
departed 113756
deploying 113755
conscience 113754
discharge 113753
stack 113752
heck 113751
Rain 113750
swings 113749
advises 113748
connects 113747
shotgun 113746
Hockey_League 113745
bishops 113744
tactic 113743
efficacy 113742
dugout 113741
Randall 113740
edit 113739
Afghans 113738
Credit_Suisse 113737
dock 113736
electorate 113735
Rugby 113734
praying 113733
taped 113732
Devon 113731
Gallagher 113730
grocery_store 113729
bang 113728
Vernon 113727
Dover 113726
nonsense 113725
cow 113724
amend 113723
catalyst 113722
Minutes 113721
pushes 113720
yards_rushing 113719
timeline 113718
cables 113717
ratios 113716
Milton 113715
Wow 113714
Rwanda 113713
Executive_Vice 113712
flower 113711
Basra 113710
chorus 113709
technicians 113708
Salvation_Army 113707
unveil 113706
rescuers 113705
Camden 113704
speculate 113703
Hispanics 113702
scrambling 113701
Heath 113700
Relations 113699
backers 113698
privatization 113697
Mesa 113696
cheers 113695
micro 113694
SMS 113693
butter 113692
seated 113691
Considering 113690
proxy 113689
speedy 113688
diverted 113687
Waters 113686
Pratt 113685
alarming 113684
caller 113683
Westminster 113682
wreckage 113681
approving 113680
drum 113679
definitive 113678
Small_Business 113677
merged 113676
Shop 113675
Palm_Beach 113674
Similar 113673
PS3 113672
Aid 113671
projection 113670
Toshiba 113669
batsman 113668
contributes 113667
Valentine_Day 113666
PGA 113665
competent 113664
Treasury_Secretary 113663
Phone 113662
downhill 113661
nerves 113660
Sacramento_Bee 113659
massacre 113658
contempt 113657
ridden 113656
elder 113655
Time_Warner 113654
subdivision 113653
-#.# 113652
orbit 113651
distraction 113650
receipts 113649
tricks 113648
relentless 113647
Roman 113646
demise 113645
incorrect 113644
subway 113643
Platform 113642
platinum 113641
considerations 113640
Little_Rock 113639
unpredictable 113638
putt 113637
commuters 113636
resisted 113635
rumored 113634
Mueller 113633
drums 113632
comedian 113631
biology 113630
peoples 113629
Marine_Corps 113628
verified 113627
ingredient 113626
RIM 113625
seasoned 113624
disk 113623
Pike 113622
heaven 113621
pad 113620
clue 113619
Telegraph 113618
VIP 113617
exterior 113616
Kathleen 113615
historian 113614
auctions 113613
Canton 113612
summoned 113611
brakes 113610
BT 113609
excuses 113608
cracking 113607
imperative 113606
occupancy 113605
Roma 113604
rope 113603
O'Donnell 113602
seizure 113601
PARIS 113600
Oscars 113599
inter 113598
evolve 113597
Iranians 113596
Munich 113595
Table 113594
lacrosse 113593
cried 113592
FILE 113591
Reno 113590
Release 113589
Mario 113588
denounced 113587
Blazers 113586
Politics 113585
negotiators 113584
diagnostic 113583
initiate 113582
relates 113581
adjusting 113580
Coal 113579
Istanbul 113578
CEOs 113577
Bates 113576
##-##-# 113575
Reserve_Bank 113574
signaling 113573
FC 113572
k 113571
resorts 113570
rand 113569
nerve 113568
loop 113567
sovereign 113566
leaking 113565
Hogan 113564
prevail 113563
Brittany 113562
Lindsey 113561
Vegas 113560
sweat 113559
grassroots 113558
slept 113557
mortality 113556
slogan 113555
Horn 113554
pipelines 113553
Fellow 113552
Mustangs 113551
tempo 113550
counselor 113549
Title 113548
Citi 113547
shoots 113546
DL 113545
kingdom 113544
Siemens 113543
Idol 113542
Ranch 113541
flurry 113540
investigative 113539
Cheryl 113538
blockbuster 113537
stir 113536
Spa 113535
constructive 113534
reinforce 113533
Public_Safety 113532
labs 113531
Securities_Exchange 113530
trailers 113529
Stafford 113528
Barber 113527
Deborah 113526
escalating 113525
rainy 113524
HOUSTON 113523
tariffs 113522
Renault 113521
Loss 113520
arraigned 113519
RFID 113518
guitarist 113517
vegetable 113516
prefers 113515
Dillon 113514
TOKYO 113513
databases 113512
bent 113511
pickup_truck 113510
tested_positive 113509
lethal 113508
cluster 113507
Nonetheless 113506
Serbian 113505
Fulton 113504
mergers 113503
powerhouse 113502
Walters 113501
rejects 113500
Guantanamo 113499
manufactures 113498
collaborate 113497
hazard 113496
unofficial 113495
Col. 113494
Visa 113493
Lance 113492
Belfast 113491
lifelong 113490
distress 113489
detailing 113488
Savannah 113487
Des_Moines 113486
AU 113485
Jensen 113484
sensation 113483
Calls 113482
vying 113481
blows 113480
mob 113479
calculations 113478
crushing 113477
CPI 113476
Yang 113475
Huntington 113474
incomplete 113473
smartphones 113472
Approximately 113471
sculpture 113470
bloggers 113469
consulted 113468
antitrust 113467
royalties 113466
restraint 113465
treasury 113464
cruel 113463
o 113462
duck 113461
ceasefire 113460
waiver 113459
timber 113458
Glass 113457
needy 113456
Rhodes 113455
Fannie_Mae 113454
Tiffany 113453
outfield 113452
Were 113451
Virgin 113450
variable 113449
trimmed 113448
waving 113447
Ivory_Coast 113446
Barnett 113445
Malone 113444
readiness 113443
statutory 113442
safeguard 113441
testament 113440
nickel 113439
ordeal 113438
symbolic 113437
goodwill 113436
General_Electric 113435
classical 113434
NCAA_Tournament 113433
destructive 113432
Boston_Red_Sox 113431
bases_loaded 113430
kits 113429
ineffective 113428
await 113427
thrust 113426
Cold_War 113425
mixing 113424
DUI 113423
discharged 113422
metropolitan 113421
strangers 113420
ETFs 113419
paths 113418
dynamics 113417
Tar_Heels 113416
founders 113415
Watkins 113414
Welch 113413
sailed 113412
drafting 113411
unite 113410
factions 113409
Huckabee 113408
vague 113407
repaired 113406
municipality 113405
Football_League 113404
forgot 113403
motor_vehicle 113402
tastes 113401
interpreted 113400
whistle 113399
Congressman 113398
sensible 113397
Wilkinson 113396
monopoly 113395
Hyderabad 113394
backgrounds 113393
streamline 113392
advertised 113391
handy 113390
deterioration 113389
spared 113388
Merrill 113387
progressed 113386
Suffolk 113385
displaying 113384
emergencies 113383
subjective 113382
goodbye 113381
prohibits 113380
camping 113379
accompany 113378
Dragons 113377
Category 113376
taxation 113375
tightened 113374
Ryder_Cup 113373
paired 113372
Simply 113371
toddler 113370
Amid 113369
strides 113368
bankruptcy_protection 113367
redemption 113366
Berlusconi 113365
Practice 113364
Interior_Ministry 113363
gentle 113362
gifted 113361
Single 113360
Corrections 113359
Mercedes 113358
bore 113357
originated 113356
loser 113355
Old_Trafford 113354
pits 113353
dresses 113352
cash_equivalents 113351
intoxicated 113350
Chancellor 113349
Lyons 113348
contacting 113347
underwater 113346
closet 113345
fullback 113344
viruses 113343
prep 113342
enroll 113341
overly 113340
prints 113339
visas 113338
amnesty 113337
Bahamas 113336
Wilmington 113335
rested 113334
happier 113333
Emirates 113332
Nate 113331
remarked 113330
thriving 113329
spa 113328
Kingdom 113327
drowned 113326
invites 113325
overdue 113324
Aviation 113323
prostate_cancer 113322
Golf_Club 113321
Questions 113320
Christina 113319
invented 113318
saga 113317
stylish 113316
influx 113315
corrections 113314
mapping 113313
broadcasts 113312
stall 113311
composer 113310
fronts 113309
Labor_Day 113308
secretly 113307
#,###,###_#,###,### 113306
MRI 113305
crunch 113304
scramble 113303
piled 113302
approvals 113301
consciousness 113300
layout 113299
quoting 113298
Worcester 113297
Hu 113296
abortions 113295
backlash 113294
obese 113293
breakaway 113292
Core 113291
Sabres 113290
Kolkata 113289
Mullen 113288
registered_trademarks 113287
Sooners 113286
bankrupt 113285
Hindu 113284
attracts 113283
hammered 113282
lesbian 113281
Tuesdays 113280
realization 113279
cites 113278
endangered 113277
roadway 113276
Separately 113275
Jenny 113274
surfing 113273
Fuller 113272
tenant 113271
status_quo 113270
Powers 113269
proudly 113268
endeavor 113267
proteins 113266
Turn 113265
lively 113264
Talks 113263
text_messages 113262
Shareholders 113261
Changes 113260
mechanics 113259
accelerating 113258
Damascus 113257
Funding 113256
plots 113255
Driver 113254
doubleheader 113253
NASDAQ 113252
groundbreaking 113251
Ecuador 113250
Value 113249
Vote 113248
Coffee 113247
Solution 113246
Antonio 113245
Shakespeare 113244
Drivers 113243
advertise 113242
intimidation 113241
museums 113240
Joy 113239
chairwoman 113238
translation 113237
bird_flu 113236
quota 113235
Julian 113234
undergraduate 113233
withstand 113232
DETROIT 113231
repurchase 113230
preferences 113229
recommending 113228
attempted_murder 113227
e_commerce 113226
Cafe 113225
Tories 113224
discourage 113223
neglected 113222
Lieberman 113221
sprained 113220
creatures 113219
catering 113218
leveraging 113217
Chevron 113216
Kenyan 113215
Bowman 113214
cancers 113213
consultancy 113212
discovering 113211
Burnett 113210
microphone 113209
delaying 113208
withdrawing 113207
morale 113206
sidewalks 113205
balloon 113204
Shields 113203
Convention_Center 113202
Parish 113201
Baptist_Church 113200
warranty 113199
bucks 113198
Ellen 113197
seriously_injured 113196
dilemma 113195
Gloucester 113194
Truth 113193
Ronaldo 113192
servicing 113191
troopers 113190
Sheriff_Office 113189
eaten 113188
cubic_feet 113187
ruin 113186
inducted 113185
Carlisle 113184
govern 113183
Diamondbacks 113182
Marks 113181
prevailing 113180
Advisory 113179
offs 113178
analog 113177
Pop 113176
commanding 113175
mutual_funds 113174
escorted 113173
Wenger 113172
worthwhile 113171
Cambodia 113170
chooses 113169
concession 113168
sounding 113167
insiders 113166
exceptionally 113165
Children_Hospital 113164
explored 113163
genuinely 113162
dreamed 113161
hitting_.### 113160
Blu_ray 113159
Angola 113158
paced 113157
Phillip 113156
NOTES 113155
quarterfinal 113154
Villanova 113153
sail 113152
supervised 113151
situated 113150
Apollo 113149
Whenever 113148
skies 113147
maritime 113146
Far 113145
wellness 113144
Libby 113143
exercised 113142
probable 113141
powder 113140
penetration 113139
Holt 113138
Hit 113137
Bronx 113136
frankly 113135
comprise 113134
Goodman 113133
Moving 113132
unwilling 113131
Named 113130
steering 113129
def 113128
Opponents 113127
rallying 113126
sanctioned 113125
auditorium 113124
&_T 113123
earmarked 113122
extract 113121
applauded 113120
Economics 113119
Greenville 113118
Telstra 113117
stride 113116
trusts 113115
skating 113114
tackled 113113
relocate 113112
bypass 113111
deflected 113110
smiled 113109
impending 113108
bath 113107
auditor 113106
Body 113105
Wolverines 113104
Cannon 113103
heating_oil 113102
aka 113101
Got 113100
Canberra 113099
Naples 113098
commenced 113097
statistical 113096
packaged 113095
gradual 113094
prescriptions 113093
mansion 113092
Galaxy 113091
Buchanan 113090
Caroline 113089
accidental 113088
More_>> 113087
Maxwell 113086
pointers 113085
collegiate 113084
enhancement 113083
LeBron_James 113082
Rally 113081
St._Petersburg 113080
inclined 113079
clashed 113078
restitution 113077
lieu 113076
Pastor 113075
Happy 113074
Gardens 113073
Jail 113072
irrigation 113071
Baxter 113070
Jun 113069
relocation 113068
porn 113067
employing 113066
jeopardy 113065
kidney 113064
subcommittee 113063
Talking 113062
tagged 113061
Grammy 113060
Larson 113059
edges 113058
swimmers 113057
Marquette 113056
enrichment 113055
viewer 113054
endure 113053
tapping 113052
peaked 113051
McConnell 113050
invaluable 113049
overshadowed 113048
washing 113047
FDIC 113046
halls 113045
callers 113044
revisions 113043
rapper 113042
traced 113041
supermarkets 113040
Maliki 113039
Progress 113038
mandates 113037
Realtors 113036
Correspondent 113035
monument 113034
timeout 113033
Hammond 113032
Y 113031
cyber 113030
dragging 113029
Investor_Relations 113028
resting 113027
dried 113026
parameters 113025
straightforward 113024
Move 113023
thread 113022
demolished 113021
Hastings 113020
affirmed 113019
Tate 113018
raise_awareness 113017
fathers 113016
Dick_Cheney 113015
Shiites 113014
USA_Today 113013
Lowell 113012
mindset 113011
regrets 113010
Habitat 113009
scaled 113008
impaired 113007
acknowledging 113006
Becker 113005
Friedman 113004
killers 113003
Schultz 113002
Administrator 113001
defensive_tackle 113000
enforcing 112999
workouts 112998
ins 112997
OS 112996
Mosul 112995
pie 112994
yelled 112993
BB 112992
rejecting 112991
deliberations 112990
Fairfax 112989
winless 112988
yielding 112987
Evan 112986
prototype 112985
indicative 112984
New_Year_Eve 112983
Cumberland 112982
CC 112981
irrelevant 112980
sacred 112979
essay 112978
attends 112977
bomber 112976
dealings 112975
Amber 112974
cream 112973
waived 112972
Son 112971
TSX_Venture_Exchange 112970
Organizers 112969
drawings 112968
Hard 112967
someday 112966
murdering 112965
Nortel 112964
Fiat 112963
fixtures 112962
ecosystem 112961
Kerala 112960
surfaces 112959
Sierra 112958
textile 112957
PHILADELPHIA 112956
flipped 112955
swiftly 112954
Ill. 112953
Forward 112952
editions 112951
capitalized 112950
introduces 112949
multinational 112948
gorgeous 112947
Burma 112946
equalizer 112945
bug 112944
salvage 112943
environmentally_friendly 112942
McNabb 112941
Arafat 112940
Moran 112939
plotting 112938
Avery 112937
pill 112936
exceeds 112935
foes 112934
thermal 112933
professionally 112932
Santa_Clara 112931
cage 112930
Stoke 112929
Mayo 112928
occurrence 112927
Contract 112926
Sparks 112925
clinical_trial 112924
educating 112923
Crusaders 112922
Liberia 112921
#####_###### 112920
discusses 112919
reservoir 112918
accustomed 112917
sanctuary 112916
Website 112915
injunction 112914
lungs 112913
snacks 112912
extradition 112911
Wednesdays 112910
Shaun 112909
Maoists 112908
directive 112907
optimal 112906
Nuclear 112905
shade 112904
All_Blacks 112903
Palestinian_Authority 112902
concentrating 112901
eleven 112900
occupy 112899
Manitoba 112898
tourney 112897
ensuing 112896
referees 112895
Martin_Luther_King 112894
Content 112893
Claire 112892
resumes 112891
methodology 112890
timed 112889
downed 112888
bookings 112887
virtualization 112886
trophies 112885
communicating 112884
Forest_Service 112883
Blackhawks 112882
utilization 112881
Omar 112880
Lennon 112879
Near 112878
Bowen 112877
inspected 112876
Volkswagen 112875
Am 112874
yours 112873
Honduras 112872
Farrell 112871
behavioral 112870
sums 112869
Stockton 112868
Ashes 112867
NW 112866
fueling 112865
UPS 112864
Christianity 112863
relocated 112862
Macy 112861
Chicago_Cubs 112860
congestion 112859
architects 112858
groin 112857
Spaniard 112856
southwestern 112855
lackluster 112854
corps 112853
stones 112852
MacDonald 112851
contended 112850
hires 112849
et_al 112848
consultations 112847
depreciation 112846
energetic 112845
corrected 112844
norm 112843
Hamburg 112842
Hussein 112841
bare 112840
fulfilling 112839
Railway 112838
chickens 112837
Quote_Chart_News 112836
prudent 112835
Trent 112834
siege 112833
fearing 112832
strains 112831
sergeant 112830
Tripoli 112829
realizes 112828
FREE 112827
scandals 112826
Division_II 112825
Electronic 112824
countryside 112823
revived 112822
cellphone 112821
repayment 112820
long_awaited 112819
diminished 112818
gamble 112817
Haley 112816
proliferation 112815
spanning 112814
Leo 112813
rebate 112812
scrapped 112811
Sixers 112810
manslaughter 112809
organs 112808
revelations 112807
footer 112806
Standards 112805
luggage 112804
smarter 112803
recalling 112802
Ronnie 112801
misery 112800
crisp 112799
Maharashtra 112798
mock 112797
legitimacy 112796
EA 112795
biotech 112794
revision 112793
faded 112792
Byrne 112791
Connor 112790
Jared 112789
improperly 112788
revelation 112787
winding 112786
Norris 112785
Wong 112784
Pine 112783
sacrifices 112782
consisted 112781
vacuum 112780
definite 112779
resolving 112778
blockade 112777
Zardari 112776
human_beings 112775
Martha 112774
imprisoned 112773
registry 112772
measurements 112771
Hanover 112770
Damon 112769
fielding 112768
undisclosed 112767
OT 112766
governing_body 112765
diamonds 112764
AC 112763
Great_Lakes 112762
EMC 112761
Aston_Villa 112760
####### 112759
surgeries 112758
rampant 112757
cartoon 112756
cab 112755
mileage 112754
proposition 112753
predominantly 112752
Clinic 112751
reinforced 112750
waterfront 112749
Great_Britain 112748
Attorneys 112747
exercising 112746
realities 112745
unconscious 112744
Stevenson 112743
exploited 112742
Analyst 112741
hated 112740
campaigned 112739
Lodge 112738
postal 112737
rebates 112736
juice 112735
anytime 112734
Brooke 112733
Ronald_Reagan 112732
Site 112731
Slovakia 112730
Letter 112729
Livingston 112728
Savage 112727
extensively 112726
greet 112725
remedy 112724
yard_TD 112723
thoughtful 112722
##am 112721
Archives 112720
banners 112719
lobbyist 112718
defines 112717
deported 112716
fouls 112715
bureaucracy 112714
speculative 112713
interactions 112712
Roth 112711
malaria 112710
salad 112709
consolation 112708
Amazon.com 112707
Foreign_Affairs 112706
Pace 112705
inspect 112704
Actor 112703
slapped 112702
Sacbee.com 112701
festive 112700
prostitution 112699
varying 112698
etc 112697
compliant 112696
floated 112695
batsmen 112694
asleep 112693
Malcolm 112692
transforming 112691
Boyle 112690
idle 112689
newcomer 112688
legislator 112687
Coyotes 112686
generator 112685
hydrogen 112684
overturn 112683
Booth 112682
outfits 112681
Sally 112680
Trial 112679
puzzle 112678
recount 112677
famously 112676
DA 112675
stairs 112674
Tree 112673
petitions 112672
Mile 112671
Carolyn 112670
Face 112669
Advertising 112668
Berkshire 112667
unspecified 112666
settlers 112665
File 112664
couch 112663
Alonso 112662
vacancy 112661
Badgers 112660
condo 112659
Lehman_Brothers 112658
condemn 112657
laundry 112656
worsening 112655
damn 112654
Rural 112653
Sunnis 112652
whopping 112651
injected 112650
cafe 112649
Trustees 112648
glance 112647
permitting 112646
Midland 112645
cater 112644
northwestern 112643
rein 112642
Fernandez 112641
Brenda 112640
Fashion 112639
crosses 112638
desirable 112637
per_capita 112636
occupants 112635
Bath 112634
Osborne 112633
Medvedev 112632
Wins 112631
hedge 112630
hazards 112629
ink 112628
nail 112627
ATM 112626
Brendan 112625
IPL 112624
rendered 112623
Always 112622
fielder 112621
Mondays 112620
optimized 112619
SE 112618
Cloud 112617
Made 112616
Alexandria 112615
understandable 112614
Cultural 112613
moms 112612
Type 112611
mitigate 112610
Civil 112609
Stan 112608
abide 112607
Gaming 112606
venture_capital 112605
FXstreet.com 112604
Canadiens 112603
Profit 112602
advertisement 112601
Tamil 112600
Woodward 112599
VAT 112598
kicker 112597
intake 112596
Grill 112595
soup 112594
precautions 112593
problematic 112592
Specifically 112591
wraps 112590
incidence 112589
Ready 112588
conditioning 112587
collateral 112586
airplanes 112585
enlisted 112584
bishop 112583
reckless 112582
Santa_Barbara 112581
completes 112580
Bass 112579
Pass 112578
Doha 112577
Rodney 112576
Fifty 112575
researching 112574
bearish 112573
constitutes 112572
tab 112571
Cut 112570
postpone 112569
Complex 112568
Musical 112567
Opening 112566
grounder 112565
Wing 112564
Primary 112563
Kraft 112562
pioneering 112561
theatrical 112560
Name 112559
lounge 112558
Equipment 112557
termed 112556
Chronicle 112555
Christchurch 112554
pandemic 112553
Ring 112552
annualized 112551
Gazette 112550
Success 112549
anglers 112548
heights 112547
Bluetooth 112546
convey 112545
Photos 112544
generators 112543
exploitation 112542
gateway 112541
Va. 112540
red_carpet 112539
viability 112538
Orders 112537
mid_##s 112536
greenhouse_gas_emissions 112535
slew 112534
vicious 112533
Mansfield 112532
TVs 112531
Bermuda 112530
incorporates 112529
ICE 112528
absurd 112527
pounded 112526
SARS 112525
** 112524
Shah 112523
gospel 112522
Hearts 112521
barbecue 112520
sentiments 112519
Maurice 112518
NT 112517
Cabrera 112516
dare 112515
Supply 112514
lens 112513
behaviors 112512
Originally 112511
Paula 112510
interrogation 112509
TCU 112508
blankets 112507
Automotive 112506
Cathedral 112505
demo 112504
trunk 112503
##.#_ppg 112502
vocals 112501
coordinating 112500
Benton 112499
responsive 112498
Hayward 112497
mercury 112496
Southampton 112495
civil_society 112494
commands 112493
exposing 112492
relieve 112491
obsessed 112490
masters 112489
Integrated 112488
identifies 112487
volunteering 112486
accessing 112485
billionaire 112484
Parsons 112483
Ladies 112482
refined 112481
Tanzania 112480
Parade 112479
LG 112478
generosity 112477
eagle 112476
Greens 112475
doubtful 112474
Bulgarian 112473
avenues 112472
Dodd 112471
optimization 112470
autonomy 112469
arose 112468
Tel_Aviv 112467
wipe 112466
executing 112465
Bhutto 112464
precaution 112463
marker 112462
Marriott 112461
erosion 112460
Fischer 112459
elusive 112458
Flores 112457
restructure 112456
paralyzed 112455
abduction 112454
acclaimed 112453
circus 112452
proceeded 112451
dimension 112450
Yates 112449
allege 112448
H#N# 112447
Detectives 112446
robberies 112445
Sussex 112444
Santa_Cruz 112443
translates 112442
punches 112441
Wise 112440
Lagos 112439
tablets 112438
parcel 112437
chapters 112436
bio 112435
Millions 112434
laden 112433
rattled 112432
Pam 112431
switches 112430
Copper 112429
battlefield 112428
splitting 112427
Native 112426
reeling 112425
terminals 112424
Nasdaq_composite_index 112423
Merkel 112422
coins 112421
Beat 112420
delegate 112419
doomed 112418
Boise_State 112417
conducts 112416
Zawya 112415
absorbed 112414
McMahon 112413
organ 112412
Sorry 112411
adhere 112410
Statements 112409
dressing 112408
assertion 112407
carpet 112406
Rudd 112405
unleashed 112404
outraged 112403
widened 112402
flagged 112401
reminiscent 112400
remake 112399
beverages 112398
equation 112397
TO 112396
bingo 112395
bleak 112394
plummeted 112393
tariff 112392
rugged 112391
Normally 112390
devastation 112389
LCD 112388
squeezed 112387
screenings 112386
gala 112385
beans 112384
speculated 112383
checkpoints 112382
malicious 112381
IDC 112380
pads 112379
distracted 112378
Adobe 112377
residency 112376
Horton 112375
Daley 112374
mercy 112373
remarkably 112372
Nicholson 112371
Kendall 112370
Dominican_Republic 112369
smash 112368
boarded 112367
aligned 112366
disagreement 112365
Free_Press 112364
graffiti 112363
belongings 112362
environmentalists 112361
Career 112360
slavery 112359
retrieve 112358
Bartlett 112357
Agencies 112356
undergone 112355
Erie 112354
Fayetteville 112353
aisle 112352
happily 112351
Growing 112350
crafted 112349
ventures 112348
Louise 112347
Dear 112346
Brock 112345
encounters 112344
Roosevelt 112343
Westwood 112342
shrimp 112341
BSE 112340
mighty 112339
Mich. 112338
policymakers 112337
Suzuki 112336
Rio_Tinto 112335
drainage 112334
establishments 112333
carved 112332
Twenty## 112331
placebo 112330
irony 112329
drastically 112328
publishes 112327
Gregg 112326
annoying 112325
mourning 112324
bell 112323
cruised 112322
sufficiently 112321
toppled 112320
qualifiers 112319
disorders 112318
NDP 112317
motorcycles 112316
I. 112315
Armenia 112314
cite 112313
nearing 112312
responds 112311
Karnataka 112310
aggravated 112309
rows 112308
tomatoes 112307
spray 112306
Taiwanese 112305
Philly 112304
dressing_room 112303
modify 112302
alleviate 112301
easiest 112300
erased 112299
Tina 112298
distressed 112297
authorize 112296
liters 112295
eurozone 112294
'S 112293
Publishing 112292
poet 112291
applicant 112290
Swift 112289
probability 112288
Chan 112287
affiliation 112286
empower 112285
Collection 112284
landslide 112283
Leave 112282
calculation 112281
Bauer 112280
upstairs 112279
yeah 112278
breadth 112277
breached 112276
tended 112275
reactors 112274
incorporating 112273
greenhouse_gases 112272
WikiLeaks 112271
marriages 112270
Broadcasting 112269
Spitzer 112268
curfew 112267
sauce 112266
Zuma 112265
Duffy 112264
Finnish 112263
flick 112262
merchant 112261
frightening 112260
Fuel 112259
NGOs 112258
Roche 112257
Ahead 112256
prevalent 112255
Keeping 112254
prescription_drugs 112253
Porsche 112252
distributes 112251
collector 112250
congress 112249
boast 112248
nevertheless 112247
drummer 112246
scouting 112245
heavier 112244
wrestlers 112243
retains 112242
Addressing 112241
globalization 112240
subdued 112239
bruised 112238
Missing 112237
Denise 112236
respectful 112235
Below 112234
Gabriel 112233
inappropriate_comments 112232
Annie 112231
cult 112230
twisted 112229
Calhoun 112228
Capitals 112227
sex_marriage 112226
myth 112225
Supervisors 112224
survivor 112223
work_ethic 112222
ensemble 112221
Guam 112220
deadlock 112219
governed 112218
cafeteria 112217
Programs 112216
auditors 112215
Compared 112214
harmony 112213
uncommon 112212
moisture 112211
spacecraft 112210
gravity 112209
TB 112208
swelling 112207
prevailed 112206
Question 112205
Fremont 112204
seamless 112203
serial 112202
Watts 112201
mortar 112200
Previous 112199
archived 112198
aerial 112197
Impact 112196
artifacts 112195
McKenzie 112194
hail 112193
prolific 112192
finalize 112191
Bolivia 112190
destiny 112189
poles 112188
Hood 112187
mediation 112186
Rocky 112185
sunshine 112184
Coventry 112183
extensions 112182
collectors 112181
ankle_injury 112180
FOX 112179
headache 112178
derby 112177
Gap 112176
dancer 112175
Doctor 112174
Schumacher 112173
Fight 112172
brace 112171
Fargo 112170
vandalism 112169
Los_Angeles_Lakers 112168
privileged 112167
Natural 112166
Colombo 112165
First_Amendment 112164
justification 112163
butt 112162
rim 112161
un 112160
Treasurer 112159
gearing 112158
Quick 112157
GB 112156
Thaksin 112155
freedoms 112154
ICT 112153
canal 112152
MIAMI 112151
Initial 112150
honesty 112149
Shepherd 112148
confiscated 112147
Creative 112146
bribery 112145
recurring 112144
Weston 112143
retreated 112142
passports 112141
startup 112140
integral_part 112139
simulation 112138
rents 112137
Bihar 112136
dessert 112135
skipped 112134
captures 112133
Accordingly 112132
underwriting 112131
congratulate 112130
Taipei 112129
advancement 112128
Great_Depression 112127
psychiatric 112126
extremist 112125
Sadly 112124
blames 112123
Jerome 112122
freestyle 112121
rookies 112120
###,###,### 112119
Marty 112118
combinations 112117
Writing 112116
Canterbury 112115
framed 112114
archives 112113
Abraham 112112
shapes 112111
Natalie 112110
privileges 112109
scoreless_innings 112108
MMA 112107
ASU 112106
technician 112105
mirrors 112104
slashing 112103
traces 112102
Greenwood 112101
Tanner 112100
resilient 112099
expelled 112098
G## 112097
interval 112096
secrecy 112095
ideological 112094
banker 112093
landlord 112092
labeling 112091
assaults 112090
barring 112089
sandwich 112088
hauled 112087
peacefully 112086
American_Legion 112085
bidder 112084
Finance_Committee 112083
progression 112082
shores 112081
maiden 112080
Kobe_Bryant 112079
Torre 112078
simplify 112077
Certain 112076
Studios 112075
press_releases 112074
antibiotics 112073
proximity 112072
accent 112071
soundtrack 112070
SD 112069
fulfilled 112068
locks 112067
calf 112066
jurisdictions 112065
portray 112064
Wesley 112063
Lab 112062
Roethlisberger 112061
Honor 112060
Dustin 112059
wasting 112058
Programme 112057
gotta 112056
Tesco 112055
Lang 112054
drained 112053
paved 112052
forge 112051
Wakefield 112050
Plains 112049
induced 112048
CT 112047
deployments 112046
Gets 112045
footsteps 112044
appliance 112043
Public_Works 112042
Venus 112041
Aspen 112040
anticipating 112039
calculate 112038
Bear_Stearns 112037
Agricultural 112036
relegation 112035
Info 112034
Roger_Federer 112033
coin 112032
preceding 112031
Spokane 112030
Anyway 112029
pretend 112028
downstream 112027
printer 112026
tandem 112025
+## 112024
rebuilt 112023
Winners 112022
Host 112021
unveiling 112020
McGee 112019
Oman 112018
Netflix 112017
Signs 112016
AJ 112015
protocols 112014
marginal 112013
descent 112012
Lakes 112011
nets 112010
hardship 112009
Sugar 112008
classification 112007
hiking 112006
Edison 112005
fortnight 112004
poisoning 112003
defends 112002
outdated 112001
indoors 112000
commercially 111999
scouts 111998
State_Condoleezza_Rice 111997
Election_Day 111996
satellites 111995
Dalton 111994
Pack 111993
Marina 111992
Cherry 111991
selective 111990
dear 111989
scout 111988
blogger 111987
Tony_Blair 111986
Nairobi 111985
Zurich 111984
Milford 111983
Notes_@ 111982
motel 111981
phrases 111980
Volume 111979
yoga 111978
guiding 111977
Fifth 111976
Santiago 111975
backbone 111974
dispatch 111973
chefs 111972
Solomon 111971
Memorial_Hospital 111970
Seniors 111969
memorandum 111968
elephant 111967
Trump 111966
Census 111965
pilgrims 111964
De 111963
Dogs 111962
###-####_ext 111961
chaotic 111960
forgive 111959
scholar 111958
Lottery 111957
decreasing 111956
Supervisor 111955
fundamentally 111954
Fitness 111953
abundance 111952
Hold 111951
enact 111950
controllers 111949
NE 111948
AD 111947
hazardous 111946
granddaughter 111945
captains 111944
surroundings 111943
younger_brother 111942
contraction 111941
trooper 111940
envelope 111939
Nice 111938
Ventura 111937
Knoxville 111936
diocese 111935
Alcoa 111934
bouncing 111933
exporter 111932
Hutchinson 111931
awaits 111930
stresses 111929
Maggie 111928
Twelve 111927
heavy_rain 111926
slap 111925
disruptions 111924
flesh 111923
Dinner 111922
daunting 111921
House_Speaker 111920
reunited 111919
Geithner 111918
novels 111917
reinstated 111916
ash 111915
brass 111914
Ironically 111913
myriad 111912
ravaged 111911
Panel 111910
motions 111909
goaltender 111908
stumbled 111907
LED 111906
polled 111905
Deep 111904
planner 111903
bargaining 111902
palace 111901
jewelery 111900
pour 111899
clergy 111898
independents 111897
accredited 111896
pedestrians 111895
Bus 111894
commute 111893
Citizen 111892
Yemeni 111891
Guinea 111890
Hassan 111889
clearer 111888
Delphi 111887
balancing 111886
..... 111885
Beverly 111884
presided 111883
scarce 111882
running_mate 111881
Molly 111880
tropical 111879
Herbert 111878
Present 111877
Monaco 111876
Crisis 111875
Prime_Minister_Manmohan_Singh 111874
parliamentary_elections 111873
Madden 111872
Hitler 111871
radio_stations 111870
interstate 111869
sympathetic 111868
Sat 111867
feedback@sacbee.com 111866
slumping 111865
Highway_Patrol 111864
place_undue_reliance 111863
Giving 111862
Shelton 111861
realm 111860
Frontier 111859
Nova_Scotia 111858
umpire 111857
Times_Square 111856
inflammation 111855
Application 111854
starting_lineup 111853
laboratories 111852
sewage 111851
pavement 111850
sanitation 111849
Heroes 111848
quantities 111847
remotely 111846
blueprint 111845
coupons 111844
dictate 111843
underdog 111842
Collier 111841
captive 111840
asbestos 111839
durable 111838
headaches 111837
Albuquerque 111836
Penny 111835
gratitude 111834
deleted 111833
Luckily 111832
stoppage 111831
Skinner 111830
Sheridan 111829
convertible 111828
spouses 111827
exported 111826
Poll 111825
orientation 111824
Crist 111823
origins 111822
accountant 111821
graders 111820
patches 111819
cart 111818
JV 111817
triggering 111816
classics 111815
ACT 111814
farewell 111813
rulings 111812
Tamil_Nadu 111811
Bruno 111810
refinancing 111809
text_message 111808
commentator 111807
Founder 111806
lips 111805
RTTNews 111804
UAW 111803
photographed 111802
ropes 111801
EMS 111800
eliminates 111799
Tibetan 111798
spirited 111797
UC 111796
Lucy 111795
fielded 111794
marred 111793
Forget 111792
acceleration 111791
centralized 111790
embracing 111789
rightly 111788
Preview 111787
rational 111786
scrambled 111785
thumbs 111784
bait 111783
due_diligence 111782
bugs 111781
Likewise 111780
Highlights 111779
minerals 111778
identity_theft 111777
cardiovascular 111776
Mountaineers 111775
interviewing 111774
tales 111773
Eaton 111772
conditional 111771
sensational 111770
asylum 111769
Massey 111768
[...]
